<pad>	0
<unk>	0
<s>	0
</s>	0
<ans>	0
</ans>	0
▁	-2.34186
▁کے	-3.3017
▁میں	-3.62058
▁کی	-3.64496
▁،	-3.71364
؟	-4.04762
▁اور	-4.20042
▁سے	-4.2683
ے	-4.33315
▁ہے	-4.37015
▁کو	-4.37273
▁کیا	-4.44284
▁کا	-4.44381
▁پر	-4.48417
▁نے	-4.49189
وں	-4.57159
ی	-4.64333
▁ایک	-4.86769
▁اس	-5.06285
▁کس	-5.21024
▁تھا	-5.23062
▁لئے	-5.29445
▁ہے۔	-5.30393
ہ	-5.33853
طور	-5.36033
▁ہیں	-5.47862
▁گیا	-5.50672
ا	-5.50885
)	-5.54709
▁جو	-5.63854
▁(	-5.66035
▁ساتھ	-5.70995
▁کرنے	-5.71624
▁جس	-5.72409
▁کون	-5.78719
▁کہ	-5.82635
▁جاتا	-5.89902
ز	-5.90588
▁زیادہ	-5.91928
س	-6.00042
۔	-6.05734
▁سی	-6.10005
▁سب	-6.14018
▁ہیں۔	-6.14049
▁یہ	-6.15315
▁تک	-6.18825
▁ان	-6.19558
▁تھا۔	-6.2139
▁بعد	-6.21772
▁استعمال	-6.23611
▁تھی	-6.27264
▁سال	-6.27743
ل	-6.3329
م	-6.34733
▁بھی	-6.38007
▁یا	-6.38505
▁نام	-6.39251
یں	-6.40014
▁سا	-6.45009
▁کتن	-6.50766
ن	-6.5261
▁دیا	-6.53938
▁نہیں	-6.56308
▁تھے	-6.57196
ک	-6.58559
،	-6.59258
نگ	-6.60047
ر	-6.6024
▁والے	-6.61842
▁کر	-6.63236
▁کرتا	-6.65307
▁کرتے	-6.65758
▁شامل	-6.65975
▁پہلے	-6.6662
ات	-6.69236
اپنے	-6.69242
▁وہ	-6.69635
▁بار	-6.69754
▁کم	-6.70327
▁ڈی	-6.71959
▁شہر	-6.73845
▁ہوا	-6.76081
▁ذریعہ	-6.7657
▁گئی	-6.80832
ت	-6.82032
▁دی	-6.83259
▁عام	-6.84105
نے	-6.84137
▁بہت	-6.84725
▁آف	-6.85808
▁کب	-6.86052
▁دوران	-6.87767
▁ہون	-6.89688
▁کیا۔	-6.89946
▁کہا	-6.91397
▁م	-6.91564
▁ایس	-6.91894
▁جب	-6.92368
▁بی	-6.96416
و	-6.97099
▁طرح	-6.9824
▁دو	-6.99357
▁غیر	-6.99414
▁صدی	-6.99979
▁ریاست	-7.00025
▁کام	-7.00157
▁کچھ	-7.0145
▁شروع	-7.01577
▁حاصل	-7.02917
▁اے	-7.03684
▁جنگ	-7.03891
ڈ	-7.0517
▁ہوئے	-7.06431
▁و	-7.06545
ین	-7.08361
ٹ	-7.08371
▁ہی	-7.08743
لیکن	-7.08801
▁قسم	-7.11128
▁بن	-7.12333
▁اپنی	-7.12492
▁وقت	-7.14664
▁جیسے	-7.15556
▁پی	-7.15615
▁طرف	-7.15652
▁ہوتا	-7.1682
▁امریکی	-7.16914
▁اہم	-7.17214
▁جان	-7.18028
▁دور	-7.18106
▁کہاں	-7.20768
▁وجہ	-7.22603
٪	-7.24208
▁تیار	-7.24729
▁آئی	-7.24794
▁والی	-7.25772
-	-7.25905
▁نیو	-7.2633
▁تھی۔	-7.2903
:	-7.29112
▁ویں	-7.3168
▁تر	-7.32428
▁تھے۔	-7.32743
▁حکومت	-7.33416
▁تقریبا	-7.33652
▁آبادی	-7.34808
▁ہوئی	-7.35202
▁ای	-7.38426
▁حصہ	-7.38444
▁پیش	-7.39094
▁کرنا	-7.39916
▁پہلی	-7.40854
▁بڑے	-7.41225
▁متحدہ	-7.42707
▁گئے	-7.43541
▁ایم	-7.45619
▁تو	-7.46478
▁گروپ	-7.46687
▁کرتی	-7.47015
▁تعمیر	-7.47034
صرف	-7.47588
▁جانا	-7.47664
▁واقع	-7.47979
▁زبان	-7.4805
▁جاتی	-7.48581
یا	-7.48669
▁انہ	-7.49106
▁دہائی	-7.49318
▁جن	-7.49738
▁مختلف	-7.49804
▁ٹی	-7.49921
▁جاری	-7.5021
▁امریکہ	-7.50678
▁ملک	-7.50803
▁بنیادی	-7.50913
▁ہوتی	-7.52001
▁دنیا	-7.52023
▁ہر	-7.52067
▁-	-7.53667
ون	-7.54626
▁کی۔	-7.55956
▁دیگر	-7.5624
▁دوسرے	-7.56558
▁درج	-7.57393
تمام	-7.57676
▁این	-7.57761
▁پیدا	-7.58426
▁قائم	-7.58461
s	-7.59627
▁آر	-7.59657
▁ہو	-7.60009
انہ	-7.60939
▁بڑی	-7.6164
▁پہلا	-7.61883
▁خلاف	-7.63276
▁درمیان	-7.64455
ری	-7.64519
ہائ	-7.65511
▁گھر	-7.65724
▁ایل	-7.65989
▁اسکول	-7.6626
▁یونیورسٹی	-7.66683
▁شمالی	-7.66861
▁ملین	-7.67183
▁مطابق	-7.67762
▁اب	-7.67763
▁لوگوں	-7.67869
▁ابتدائی	-7.67998
▁جبکہ	-7.68126
ف	-7.68187
▁کسی	-7.68444
▁کردیا	-7.69691
▁او	-7.69795
▁سلطنت	-7.69866
▁قانون	-7.70046
▁ہوتے	-7.70448
▁ایف	-7.70649
اں	-7.71136
▁تشکیل	-7.71166
▁نظام	-7.7355
▁بال	-7.73781
▁ترقی	-7.75842
▁تین	-7.76524
▁شدہ	-7.76693
▁عمل	-7.77538
▁خاص	-7.78273
▁بچ	-7.78555
▁برطانیہ	-7.79059
ش	-7.79368
▁یو	-7.79822
▁علاقے	-7.80715
▁بنیاد	-7.81266
▁بڑا	-7.81295
▁وی	-7.81853
د	-7.82059
▁کار	-7.82565
▁تاریخ	-7.82628
▁پیمان	-7.82711
ب	-7.82927
▁فیصد	-7.83051
ان	-7.83052
▁مابین	-7.83223
▁تعلیم	-7.83334
▁مقامی	-7.83361
▁والا	-7.84085
▁فرانسیسی	-7.84765
▁مغربی	-7.84812
▁دوسری	-7.85156
▁دینے	-7.85616
▁لی	-7.85654
▁کوشش	-7.85795
▁ختم	-7.8622
▁جرمن	-7.86292
▁فراہم	-7.86294
▁دونوں	-7.8665
▁برطانوی	-7.86758
▁کتنا	-7.87141
▁تبدیل	-7.87158
▁کمپنی	-7.87357
▁مکمل	-7.87444
▁پاس	-7.87618
▁اصل	-7.87644
▁جی	-7.87658
▁اکثر	-7.88267
نا	-7.88416
▁خاندان	-7.88934
▁سرکاری	-7.89061
▁جنوبی	-7.89113
▁ذریعے	-7.89309
▁رہا	-7.89546
▁علاقوں	-7.89876
▁چیز	-7.89878
دوبارہ	-7.91274
▁17	-7.91412
لی	-7.91782
پ	-7.91847
▁علاوہ	-7.92045
▁قابل	-7.92382
▁مشرقی	-7.92706
▁کیونکہ	-7.92889
سٹ	-7.92943
▁سمجھا	-7.93518
▁چرچ	-7.9354
▁صدر	-7.93607
▁زمین	-7.94201
▁ب	-7.95393
▁مین	-7.95475
▁موسم	-7.95477
ج	-7.95578
▁دن	-7.95782
▁نئے	-7.96464
▁جگہ	-7.96708
▁مل	-7.96853
▁تحت	-7.97071
▁بندی	-7.97228
▁اجازت	-7.97478
▁سکتا	-7.97484
▁حصے	-7.97491
▁3	-7.9785
▁گیا۔	-7.97854
▁جدید	-7.98187
▁بین	-7.98392
ئی	-7.98512
▁مشہور	-7.98574
▁یورپی	-7.98619
▁فوج	-7.98641
▁اعلی	-7.98758
▁مثال	-7.99336
▁لے	-7.99584
▁شکل	-7.99881
▁جہاں	-7.9991
▁2	-7.99931
▁یونانی	-8.00072
▁کردہ	-8.00271
▁انتخاب	-8.00661
▁قدیم	-8.00731
▁فٹ	-8.00776
▁آخر	-8.00966
▁سطح	-8.01508
▁ہم	-8.02174
▁کنٹرول	-8.02342
▁بنایا	-8.02392
تا	-8.02847
▁مدد	-8.03225
▁ریکارڈ	-8.03539
▁ممالک	-8.04094
▁چین	-8.04118
سی	-8.04609
▁سسٹم	-8.04751
▁آغاز	-8.04897
▁خیال	-8.05656
▁سٹی	-8.05851
▁کوئی	-8.05977
▁خود	-8.06045
▁فلم	-8.06199
"	-8.06293
▁نتیج	-8.07092
▁ت	-8.0723
▁رنگ	-8.07852
▁تقسیم	-8.08329
▁لیگ	-8.08355
▁کن	-8.08506
وس	-8.08655
ائی	-8.08962
اس	-8.0921
▁اعلان	-8.09551
▁طاقت	-8.09585
ور	-8.09625
▁معیار	-8.09966
▁16	-8.10172
▁کردار	-8.10354
چ	-8.10631
▁حمل	-8.10775
▁مقابل	-8.10778
▁ڈالر	-8.11209
▁اصطلاح	-8.11441
▁میل	-8.11676
▁ضرورت	-8.11726
▁یونین	-8.11809
▁فی	-8.11872
▁نظر	-8.12282
▁15	-8.12616
تھ	-8.12733
▁عظیم	-8.12921
▁کھیل	-8.13056
▁تجارت	-8.1307
▁سیاسی	-8.13073
▁یارک	-8.13126
▁کبھی	-8.13414
▁لوگ	-8.13839
▁انگریزی	-8.13974
▁فوجی	-8.1437
ار	-8.14536
▁موسیقی	-8.15123
▁حمایت	-8.15323
▁سینٹ	-8.15434
▁منتقل	-8.15503
▁مسیح	-8.15671
▁قریب	-8.15804
▁فرانس	-8.15814
▁تاہم	-8.1647
▁بیان	-8.1649
▁18	-8.16558
▁سیزن	-8.1658
▁اندر	-8.16655
▁اینڈ	-8.16685
▁1	-8.17013
e	-8.1712
کئی	-8.17199
▁لیا	-8.17213
▁بنانے	-8.17419
▁تعداد	-8.17462
▁متاثر	-8.17545
▁10	-8.17569
▁"	-8.17637
وسیع	-8.17753
را	-8.18039
▁لندن	-8.18046
گ	-8.18305
▁اثر	-8.18375
▁جا	-8.18489
▁دیا۔	-8.18841
ذ	-8.19114
▁حیثیت	-8.19139
نئی	-8.1922
ٹی	-8.19335
▁20	-8.19643
▁افراد	-8.20595
سن	-8.2073
▁فروخت	-8.20759
▁جاسکتا	-8.20786
▁موجود	-8.20861
▁معاہدے	-8.20931
▁وسطی	-8.21138
▁جزیر	-8.21403
▁زندگی	-8.21622
▁مر	-8.21808
▁جنوب	-8.22511
▁رکھا	-8.22663
▁گا	-8.22703
▁چار	-8.22704
نی	-8.22922
▁مبنی	-8.24615
▁ویسٹ	-8.25043
▁موت	-8.25451
▁نسل	-8.25455
▁قومی	-8.25605
▁ہوائی	-8.25961
؛	-8.25963
▁ڈیزائن	-8.26138
وامی	-8.26289
▁الاق	-8.26598
▁ظاہر	-8.2685
▁یورپ	-8.26946
i	-8.278
▁اسٹیشن	-8.28283
▁ش	-8.28317
▁بھر	-8.28431
▁جاتے	-8.28908
▁چینی	-8.29406
▁پروگرام	-8.29465
▁کمی	-8.29603
▁مرکز	-8.29754
▁لائن	-8.30077
'	-8.30137
▁ٹیم	-8.30371
دار	-8.30479
▁رہے	-8.30486
▁الگ	-8.30722
▁میٹر	-8.30978
▁کل	-8.31283
▁بادشاہ	-8.3151
▁رومن	-8.31522
▁/	-8.31561
▁جہاز	-8.32221
▁لیے	-8.32286
▁سر	-8.32746
▁نشان	-8.32994
▁ٹیلی	-8.33019
▁عوامی	-8.33074
▁لینڈ	-8.33212
بی	-8.33384
▁آخری	-8.33453
▁بات	-8.33572
▁آزاد	-8.33689
▁ہاؤس	-8.3409
a	-8.34465
▁پانی	-8.3457
▁کتاب	-8.34732
▁ال	-8.34791
▁پارک	-8.34928
▁پارٹی	-8.35051
▁قب	-8.35065
▁انداز	-8.35268
▁ہوا۔	-8.35412
▁توانائی	-8.35454
▁12	-8.35621
▁مشتمل	-8.35753
شائع	-8.3589
▁فن	-8.36398
▁5	-8.36456
نٹ	-8.37083
تعدد	-8.37272
▁شمال	-8.3752
▁ایچ	-8.3756
ٹو	-8.37761
▁حملہ	-8.38297
▁سوویت	-8.38383
▁تھیں	-8.38558
▁شو	-8.39038
▁انسانی	-8.39119
▁اپنا	-8.39212
▁نیشنل	-8.39328
▁جائے	-8.39392
▁عمارت	-8.39413
▁وضاحت	-8.39517
▁مطلب	-8.39725
▁بولی	-8.40032
.	-8.40117
▁پانچ	-8.40121
▁جنرل	-8.40142
▁مشرق	-8.40196
▁وال	-8.40269
▁نو	-8.4047
▁اضافہ	-8.40485
نکہ	-8.40681
▁پرجاتیوں	-8.40917
▁عمر	-8.41075
y	-8.41675
o	-8.41821
▁ف	-8.41909
▁2010	-8.41938
▁کالج	-8.42172
ول	-8.42219
یو	-8.4229
▁مقصد	-8.42784
▁حالا	-8.42899
▁برقرار	-8.43213
2	-8.43256
▁جمہوریہ	-8.43384
▁آئین	-8.43897
▁موجودہ	-8.44036
▁کلومیٹر	-8.4408
تعارف	-8.44404
▁چھوڑ	-8.44622
▁ثقافت	-8.44796
▁قبضہ	-8.44829
▁مرکزی	-8.44832
▁حوالہ	-8.44933
کس	-8.44977
▁حکمرانی	-8.4507
▁14	-8.45167
▁مذہبی	-8.45387
مہ	-8.45681
▁لا	-8.45701
▁8	-8.45717
0	-8.459
▁تنظیم	-8.45994
▁انگلینڈ	-8.46051
▁روم	-8.46227
بل	-8.4639
▁واحد	-8.46717
?	-8.47612
▁قیادت	-8.47725
رز	-8.47936
▁4	-8.48124
یت	-8.48217
روایتی	-8.48297
ٹن	-8.48357
▁اگر	-8.48551
گی	-8.48614
▁بجائے	-8.48858
▁لفظ	-8.49003
انے	-8.49517
▁دیتا	-8.49717
ٹر	-8.49802
وجہ	-8.49864
▁کونسل	-8.50056
▁بے	-8.50608
▁رہت	-8.5062
▁واپس	-8.50778
▁دار	-8.50865
▁مئی	-8.51009
▁شکار	-8.51018
▁پھر	-8.51043
▁باہر	-8.51044
▁طلباء	-8.51045
▁پیرس	-8.51304
▁مارچ	-8.51428
▁تبدیلی	-8.51656
▁آزادی	-8.51843
▁رکھن	-8.51929
▁ادا	-8.52103
▁خدمات	-8.52449
سے	-8.52456
▁مطالعہ	-8.52571
▁19	-8.52612
▁ہائی	-8.5266
وا	-8.52909
▁13	-8.53209
n	-8.53221
▁ستمبر	-8.53518
▁وکٹوریہ	-8.53554
▁سکتے	-8.53649
▁ق	-8.53962
▁منتخب	-8.54235
وی	-8.5431
▁خواتین	-8.54355
▁رکھی	-8.54422
▁11	-8.54885
شن	-8.54939
▁ہسپانوی	-8.55299
▁ایئر	-8.55356
▁علم	-8.55556
کل	-8.55749
▁2011	-8.55813
▁سینٹر	-8.55867
ح	-8.55874
▁روسی	-8.56076
▁2008	-8.56178
▁6	-8.56181
▁جین	-8.56387
تی	-8.56787
▁معاشی	-8.56913
▁بیل	-8.56926
▁شہنشاہ	-8.5716
▁مرد	-8.57378
▁بدھ	-8.57436
▁اوائل	-8.57544
▁تاریخی	-8.57612
▁جیت	-8.57685
▁ہندوستان	-8.5769
▁میوزک	-8.5778
▁اگرچہ	-8.57786
▁جون	-8.57799
▁ممبر	-8.57866
▁مغرب	-8.5808
▁2007	-8.58287
▁تاک	-8.58482
زم	-8.5849
,	-8.58904
یلو	-8.59006
کا	-8.59014
▁میک	-8.59145
▁دیکھا	-8.59217
▁ملکہ	-8.59314
▁حد	-8.59369
▁7	-8.5958
▁دفاع	-8.59665
▁آپ	-8.60082
▁سان	-8.60126
▁رہی	-8.60145
▁نقصان	-8.60176
نس	-8.60298
▁دریافت	-8.60429
▁نہ	-8.6045
▁جمع	-8.60684
▁دوسرا	-8.60695
▁دیتے	-8.61007
▁شہری	-8.61163
جی	-8.61188
▁لکھا	-8.61354
▁با	-8.61365
▁مدت	-8.6147
▁2013	-8.61591
▁مت	-8.6163
▁وزیر	-8.61723
▁افریقی	-8.61844
▁قانونی	-8.62171
▁بغیر	-8.62368
▁جنوری	-8.62394
▁مار	-8.62549
p	-8.62585
▁نمبر	-8.62625
▁نسلی	-8.62678
▁نقطہ	-8.62887
▁راست	-8.6306
t	-8.63121
▁مقام	-8.63155
▁ذ	-8.63334
▁کلب	-8.63371
اؤ	-8.63575
▁پسند	-8.63587
▁مواد	-8.6381
▁2009	-8.64079
c	-8.64134
▁وفاقی	-8.64205
▁روشنی	-8.64457
▁قرار	-8.6447
▁تجویز	-8.64471
▁اوسط	-8.64477
▁شکست	-8.65005
▁بند	-8.65026
ڈر	-8.65326
▁لڑائی	-8.65413
ال	-8.65763
▁نمائندگی	-8.65814
جام	-8.65904
▁تحریک	-8.65946
▁مشترک	-8.65946
▁خصوصیات	-8.66045
کر	-8.66196
▁جرمنی	-8.66233
▁ری	-8.66433
▁شوپن	-8.66491
▁مجموع	-8.66746
▁حصوں	-8.6675
▁طویل	-8.6676
کو	-8.66814
▁شرح	-8.67032
▁علاقہ	-8.67442
▁دارالحکومت	-8.67579
▁2012	-8.67585
ٹا	-8.67591
▁2014	-8.67997
▁طریقہ	-8.68021
▁داخل	-8.68341
▁دے	-8.68392
▁مارکیٹ	-8.68554
▁آج	-8.68643
▁تعلقات	-8.68648
▁منعقد	-8.68684
▁کینیڈا	-8.68684
▁چھوٹے	-8.68763
▁مذہب	-8.68824
▁کیتھولک	-8.68962
▁جیسا	-8.68983
▁مالی	-8.69033
▁اوپر	-8.69033
▁C	-8.69038
▁اختیار	-8.69075
▁آیا	-8.69199
▁شناخت	-8.70081
▁بل	-8.70109
رو	-8.70591
▁اکتوبر	-8.70787
▁مقبول	-8.71056
▁مقابلہ	-8.71477
▁اپریل	-8.71644
▁بڑھ	-8.71771
▁گر	-8.71994
▁خطے	-8.72327
▁عثمانی	-8.7234
▁منسلک	-8.72503
▁کاؤنٹی	-8.72616
▁ورک	-8.72675
▁ماڈل	-8.72792
▁چلت	-8.7315
▁اختتام	-8.73227
▁ساحل	-8.73233
▁سفر	-8.7324
u	-8.73309
سٹر	-8.73361
▁عرص	-8.73372
]	-8.73517
▁نمایاں	-8.73518
▁اضاف	-8.73622
فی	-8.73848
▁پال	-8.73856
▁سو	-8.73914
▁ہیون	-8.73935
▁لکڑی	-8.73956
▁مزید	-8.73961
قدرتی	-8.73998
▁آ	-8.74052
▁بنا	-8.74144
l	-8.74209
ڈی	-8.74215
▁جولائی	-8.74544
▁اگست	-8.7469
▁نظریہ	-8.74865
▁عدالت	-8.7499
1	-8.75066
▁اینٹی	-8.75282
/	-8.7587
▁پایا	-8.75901
▁دسمبر	-8.76042
▁نیٹ	-8.76148
▁گئی۔	-8.76178
▁پور	-8.76313
▁ساؤتھ	-8.76327
▁خدا	-8.76624
▁فتح	-8.76775
▁بورڈ	-8.76819
▁فام	-8.77099
▁اسٹریٹ	-8.77135
▁صلاحیت	-8.77309
▁بڑھت	-8.77514
▁ایکٹ	-8.77611
▁گرد	-8.77873
▁کردیا۔	-8.77915
▁فیصلہ	-8.77919
▁چھ	-8.78063
▁متعلق	-8.78116
▁ورلڈ	-8.78141
▁تصور	-8.78179
▁ریاستوں	-8.78333
▁افریقہ	-8.78597
▁دی۔	-8.78733
▁ڈچ	-8.79067
▁ہوسکت	-8.79115
▁افواج	-8.79212
▁اپ	-8.7941
▁مضبوط	-8.79485
▁ذکر	-8.79494
▁قیمت	-8.79496
▁دریا	-8.79682
▁رکھتا	-8.79727
▁روس	-8.8017
▁خدمت	-8.80297
▁فرق	-8.80446
▁شادی	-8.80456
▁کامیابی	-8.80494
4	-8.80589
▁بغاوت	-8.80609
▁ناصر	-8.80612
ق	-8.80645
▁آرٹ	-8.80731
▁یونان	-8.80753
▁قوم	-8.80956
ڈو	-8.8113
▁سائنس	-8.81194
محدود	-8.81215
▁براہ	-8.81252
▁پتہ	-8.81301
▁کلاسیکی	-8.81552
▁شہروں	-8.81602
S	-8.81743
▁سفید	-8.81868
▁2006	-8.81877
▁آب	-8.82059
▁پیداوار	-8.82208
▁ایپل	-8.82334
▁سروس	-8.8261
▁شخص	-8.82793
▁دستیاب	-8.82823
▁2015	-8.82832
▁ویژن	-8.82868
▁سبب	-8.82911
▁کرکے	-8.83
▁جنہ	-8.83066
▁عالمی	-8.83178
▁البم	-8.83224
تہائی	-8.83586
▁[	-8.83619
▁جارج	-8.83767
▁میکسیکو	-8.84272
▁توسیع	-8.84517
▁بیس	-8.84635
▁ممکنہ	-8.84697
▁پالیسی	-8.84764
▁بہتر	-8.84903
▁اتحاد	-8.85271
▁یہودی	-8.8542
ذا	-8.85479
▁'	-8.85545
▁آواز	-8.85575
ٹری	-8.85602
▁مختصر	-8.85615
▁انقلاب	-8.85768
▁ریاستی	-8.85845
یٰ	-8.85944
3	-8.86048
▁تخلیق	-8.86073
▁زندہ	-8.86073
ما	-8.86087
g	-8.86301
▁حرارت	-8.86403
▁نومبر	-8.86569
▁کیڑے	-8.86754
▁بحری	-8.86842
ط	-8.86927
▁من	-8.86972
▁تعلق	-8.87111
▁پابندی	-8.87149
▁S	-8.87385
▁سربراہ	-8.87738
▁سیاہ	-8.87889
▁خصوصی	-8.8801
وم	-8.88236
▁پیچھے	-8.88276
▁فری	-8.88332
▁سائٹ	-8.88395
▁تعریف	-8.88751
ٹس	-8.88909
وک	-8.88918
▁فوجیوں	-8.88918
نپولین	-8.8892
▁جاپان	-8.88979
▁دیکھ	-8.89079
▁محفوظ	-8.8909
▁کرسکت	-8.89204
▁دستخط	-8.89261
▁گی	-8.89409
▁پوپ	-8.89642
▁ہجرت	-8.89774
▁پولیس	-8.89853
▁شاہی	-8.89901
▁جاپانی	-8.90058
▁انسان	-8.90063
▁حقوق	-8.90117
▁اسی	-8.90215
k	-8.90295
▁معیشت	-8.90634
▁ووٹ	-8.90651
▁مصر	-8.90699
▁ترین	-8.90751
▁منصوبہ	-8.90807
▁نقل	-8.91154
▁2005	-8.91167
▁تسلی	-8.91366
کی	-8.91473
f	-8.91476
▁قرون	-8.91687
▁رکھتے	-8.91704
▁جانوروں	-8.91873
▁راک	-8.91949
▁آہستہ	-8.92027
▁کاروبار	-8.92027
یشن	-8.92041
▁سامن	-8.92085
▁مستقل	-8.92276
▁دیر	-8.92314
▁چاہئے	-8.92673
▁ویڈیو	-8.92696
▁سمندری	-8.9273
▁میزبان	-8.92731
▁تھیٹر	-8.92766
▁مربع	-8.92907
▁ریڈیو	-8.92932
یم	-8.93001
m	-8.93104
▁تحقیق	-8.93292
d	-8.93301
▁ناف	-8.93301
▁ثقافتی	-8.93308
▁فورس	-8.93368
▁اسکولوں	-8.93398
▁آلات	-8.93675
ٹک	-8.93682
▁کمیونٹی	-8.938
▁رپورٹ	-8.93905
5	-8.93968
r	-8.93984
▁2000	-8.94008
جس	-8.94186
▁وسط	-8.94291
▁نیا	-8.94294
▁پودوں	-8.94332
▁معاشرتی	-8.94511
▁میوزیم	-8.94511
▁لگایا	-8.94707
▁نجی	-8.94756
▁ذیل	-8.94768
▁تھیں۔	-8.94922
▁بینڈ	-8.95057
▁لاطینی	-8.95083
جو	-8.95132
▁آس	-8.95169
▁جزائر	-8.95233
ع	-8.95292
▁مقرر	-8.95414
▁اوکلاہوما	-8.95595
فٹ	-8.95613
▁گھروں	-8.9575
▁تباہ	-8.95908
▁انتظام	-8.9591
▁بالآخر	-8.96142
▁عرب	-8.96163
▁کامیاب	-8.96278
▁جزیرہ	-8.96424
▁ڈیم	-8.96634
▁بیک	-8.96709
▁نتیجہ	-8.96764
in	-8.96837
▁گا۔	-8.96839
▁معاہدہ	-8.96875
▁سکتی	-8.9689
▁بندرگاہ	-8.97059
▁آمدنی	-8.97069
▁بلین	-8.97301
▁سابق	-8.97319
b	-8.97322
▁25	-8.97439
▁سرگرمی	-8.97548
▁اعظم	-8.97614
▁وے	-8.97669
می	-8.97765
بر	-8.97871
▁ورژن	-8.97985
▁گئیں	-8.98022
کن	-8.98088
رین	-8.98213
پا	-8.98236
▁از	-8.98357
▁9	-8.98656
▁صحت	-8.9892
▁منظم	-8.99108
▁فروری	-8.99112
▁قبول	-8.99137
دھ	-8.99146
▁کورٹ	-8.99254
▁لینے	-8.99257
▁سابقہ	-8.9928
▁جسم	-8.99329
▁A	-8.99367
▁ہیڈ	-8.99485
بو	-8.9964
گو	-8.99651
انا	-8.99695
▁خصوصیت	-8.99796
بہترین	-9.00006
تیزی	-9.00007
▁ہتھیار	-9.00243
al	-9.00364
▁مخصوص	-9.00624
▁سخت	-9.00624
ؤں	-9.0063
مین	-9.00714
▁کانگریس	-9.00816
▁کیں	-9.00915
▁عنوان	-9.01007
▁جے	-9.01183
▁کاری	-9.01292
▁رہنما	-9.01347
▁باوجود	-9.01391
▁سمندر	-9.01393
h	-9.01398
گا	-9.01611
▁نظریات	-9.01727
re	-9.0174
▁مقامات	-9.01767
▁مرکوز	-9.01777
▁یافتہ	-9.01777
اقوام	-9.01792
دہی	-9.01792
▁رہائشی	-9.01806
▁کرایا	-9.01857
▁ملی	-9.01881
▁کارروائی	-9.01971
A	-9.02171
▁ڈیٹا	-9.02437
▁کافی	-9.02534
▁ڈیل	-9.02546
لینڈ	-9.02552
لک	-9.02586
▁ہونا	-9.02634
▁میدان	-9.0275
▁میڈیا	-9.02764
▁جنسی	-9.02788
▁ضروری	-9.02818
▁کرے	-9.03163
▁ٹیوٹ	-9.03227
خ	-9.03268
▁جواب	-9.03363
▁کھیلوں	-9.03527
▁بوسٹن	-9.03773
▁مسترد	-9.03926
▁عملی	-9.0401
▁اندرونی	-9.04125
▁سرخ	-9.04346
▁اکثریت	-9.04392
▁نیچے	-9.0442
▁اسٹیٹ	-9.04435
▁°	-9.04559
▁باقی	-9.04594
▁سلسل	-9.04719
▁آئیڈل	-9.04754
پر	-9.04842
اب	-9.04871
▁ریلوے	-9.04919
▁کمپیوٹر	-9.05065
اضح	-9.05118
▁جزو	-9.0512
▁اطالوی	-9.05226
ar	-9.05318
▁M	-9.0556
روغ	-9.05743
▁غلام	-9.05761
مر	-9.05815
▁رہنے	-9.05927
پی	-9.05991
▁ملکی	-9.06014
▁گئے۔	-9.06099
▁زبانوں	-9.06296
▁وائٹ	-9.06363
لو	-9.06365
▁امریکن	-9.06526
▁پوسٹ	-9.06811
▁حق	-9.06934
0،000	-9.0695
▁زیر	-9.07129
▁فعال	-9.07136
▁طریقوں	-9.07292
وف	-9.07539
▁سامنے	-9.07651
▁وابستہ	-9.07749
▁آباد	-9.07782
▁بینک	-9.0782
▁کھانے	-9.07848
▁دورہ	-9.0787
▁انسٹی	-9.07964
▁ترک	-9.08045
▁ہال	-9.08056
▁گورنر	-9.08071
▁آن	-9.08136
مپٹن	-9.08171
▁برعکس	-9.08366
▁اداروں	-9.0837
▁تنازعہ	-9.08544
▁فیلڈ	-9.08557
▁قوانین	-9.0878
دی	-9.08897
یز	-9.08922
00	-9.08933
▁ملت	-9.09066
▁عیسائی	-9.09089
اظ	-9.0924
▁30	-9.09311
z	-9.09315
▁مجبور	-9.09404
▁1990	-9.0941
▁اگل	-9.09457
▁الفاظ	-9.09613
▁کوڈ	-9.09642
er	-9.09665
▁لح	-9.09851
▁ریڈ	-9.09872
▁خارج	-9.10031
▁سیریز	-9.10034
▁رائل	-9.10082
▁مہم	-9.10364
▁جنگی	-9.1065
▁قتل	-9.10663
▁اڈے	-9.10667
▁ایشن	-9.10894
▁یونٹ	-9.10905
▁منظور	-9.10972
▁اول	-9.11071
▁آسٹریلیا	-9.11266
وسٹن	-9.11274
رس	-9.11296
▁رفتار	-9.11301
▁ایسٹونیا	-9.11513
▁ایسوسی	-9.11514
▁بجلی	-9.11531
▁تاج	-9.11535
▁ریل	-9.11577
▁ہندوستانی	-9.11668
ص	-9.11686
▁حروف	-9.11724
▁ویئر	-9.12271
I	-9.12306
▁ہوگئی	-9.12338
▁1970	-9.12375
▁فائدہ	-9.12798
▁حکم	-9.13188
▁طریق	-9.13453
▁پوڈ	-9.13567
▁جنس	-9.1357
▁شماری	-9.13741
▁بولنے	-9.13887
▁جاسکے	-9.14101
▁سمیت	-9.14116
▁چاہت	-9.14195
▁تنقید	-9.14239
▁سیٹ	-9.14258
▁ٹاپ	-9.14558
یس	-9.14562
▁عائ	-9.14774
▁سرحد	-9.15171
▁ولیم	-9.15181
▁اصول	-9.15199
▁ایسٹ	-9.15205
▁100	-9.1525
▁آنے	-9.15254
▁آرڈر	-9.15283
▁ملکیت	-9.15361
▁2004	-9.15429
▁ترجمہ	-9.15498
▁پائے	-9.1556
▁واشنگٹن	-9.15642
▁دعو	-9.15659
6	-9.15805
▁سن	-9.15846
▁کریں	-9.15948
▁I	-9.16045
▁ارد	-9.16158
▁صارفین	-9.16339
▁دہ	-9.16346
لال	-9.16402
▁اشرافیہ	-9.16534
▁پارلیمنٹ	-9.16534
▁مسائل	-9.1676
انی	-9.16952
▁پھیل	-9.16962
▁مارشل	-9.16987
▁جلد	-9.17006
▁تلاش	-9.17208
▁کیرولائنا	-9.17208
▁ٹائمز	-9.17434
من	-9.17704
▁ناکام	-9.17836
▁نوجوان	-9.17887
▁سیل	-9.17914
▁دائر	-9.17928
▁24	-9.18022
▁ہاور	-9.18053
E	-9.18083
وز	-9.18109
▁سپریم	-9.1813
▁دیئے	-9.18156
▁فار	-9.18266
▁نصف	-9.18304
▁شمسی	-9.18344
▁لہ	-9.18465
▁اچھ	-9.18475
▁قرض	-9.18622
▁کالونی	-9.1903
▁ایونیو	-9.19034
▁کیری	-9.19041
▁گرما	-9.19198
▁حیاتیات	-9.19233
▁درخواست	-9.19258
▁مردوں	-9.19341
ائڈ	-9.19427
▁حل	-9.19601
▁متبادل	-9.1972
▁ڈویژن	-9.1972
▁پسندی	-9.19787
یہ	-9.19792
▁رہائش	-9.19916
▁گیم	-9.20017
▁ہوئی۔	-9.20045
▁لانچ	-9.20184
▁سائز	-9.20251
us	-9.20474
▁21	-9.20512
en	-9.20627
▁گرج	-9.20666
▁گ	-9.20708
▁مصنوعات	-9.20713
▁ڈگری	-9.20885
▁پوزیشن	-9.20891
▁حکمران	-9.21097
▁مشعل	-9.21117
▁ڈبلیو	-9.21118
▁انکار	-9.2121
▁علاقائی	-9.21352
▁مقیم	-9.21352
▁اینٹینا	-9.21413
▁آئزن	-9.21587
▁براعظم	-9.21587
▁پیدائش	-9.21638
▁ٹیکس	-9.21646
تے	-9.2173
▁ماحولیات	-9.21828
فورڈ	-9.21861
▁گانے	-9.21921
▁تیز	-9.21988
▁واقعات	-9.22059
▁سرمایہ	-9.22069
▁پل	-9.22166
▁بیونسے	-9.22167
▁F	-9.22251
▁بیئر	-9.22416
▁ہوئے۔	-9.22424
▁بر	-9.2253
▁رسوخ	-9.22534
▁کمانڈ	-9.22583
▁جیمز	-9.22588
▁سپر	-9.22589
▁ڈو	-9.22658
▁گرینڈ	-9.22676
▁اسرائیل	-9.22762
▁نیوز	-9.22922
▁وان	-9.2294
▁اسپین	-9.22986
▁نمائش	-9.2301
▁ہوگئے	-9.23015
اء	-9.2305
▁پیشہ	-9.23164
▁صنعت	-9.23192
▁باضابطہ	-9.23251
▁آئرلینڈ	-9.23493
▁قریبی	-9.23515
▁کارکردگی	-9.2373
▁اٹلی	-9.2373
▁موٹر	-9.23779
an	-9.24023
سو	-9.24106
ارڈ	-9.24138
ٹرنیٹ	-9.24181
▁کپ	-9.24214
▁کھو	-9.24306
20	-9.24347
le	-9.24353
▁دہل	-9.24416
▁والد	-9.24467
▁روک	-9.24488
8	-9.2456
la	-9.24576
▁مقدار	-9.24697
or	-9.24744
▁معلومات	-9.24752
▁لو	-9.25104
▁پرند	-9.25202
ں	-9.2523
▁کوریا	-9.25252
▁40	-9.25289
▁جسمانی	-9.25491
▁ییل	-9.25515
▁چھوٹی	-9.25546
ڈن	-9.25603
▁حوصل	-9.25674
▁لائبریری	-9.25674
▁ترتیب	-9.25674
▁میچ	-9.2573
▁یہودیوں	-9.2575
▁روایت	-9.25901
▁دماغ	-9.2592
▁آسٹریا	-9.2592
▁بیکٹیریا	-9.25921
▁زلزل	-9.2593
▁حالت	-9.25991
ض	-9.2607
▁گاہ	-9.26182
▁ویل	-9.26198
▁روشن	-9.26215
▁صوتی	-9.26221
▁شمار	-9.26427
▁آگے	-9.26503
▁بارش	-9.26698
▁کیے۔	-9.26767
▁ووڈ	-9.26828
▁ڈسک	-9.2689
▁ایجاد	-9.26911
▁سازی	-9.2693
▁پہنچ	-9.26963
▁داری	-9.27137
▁سائنسی	-9.27186
▁چیف	-9.2721
▁سول	-9.27279
▁بنائے	-9.27292
گر	-9.27361
چی	-9.27397
▁علامت	-9.27519
▁میڈونا	-9.27657
▁ماہر	-9.27674
M	-9.27813
▁شاخ	-9.27922
▁حقیقت	-9.27925
▁اپنایا	-9.28304
گن	-9.28409
ء	-9.28587
▁وقف	-9.28663
▁وطن	-9.28663
▁فون	-9.28854
▁فارمیٹ	-9.2892
▁نارتھ	-9.28966
لا	-9.28998
▁قیام	-9.29237
▁آئے	-9.29451
▁منظوری	-9.29562
▁عیسوی	-9.29679
یل	-9.29725
▁الزام	-9.2981
▁گرم	-9.29818
▁زور	-9.29857
▁مسلسل	-9.29935
وری	-9.29985
▁مہین	-9.30003
▁استد	-9.30068
▁گروہوں	-9.30088
اسلامی	-9.301
▁ہوسکتا	-9.30101
▁عروج	-9.30192
اد	-9.30207
▁N	-9.30466
▁برف	-9.30506
▁تبت	-9.30517
▁سنگل	-9.30926
▁ڈھانچے	-9.30965
▁اسٹیڈیم	-9.30966
▁مخالف	-9.31115
▁کت	-9.31126
▁ایکس	-9.31132
▁رو	-9.31215
▁سیٹلائٹ	-9.31224
▁الیکٹرک	-9.31255
منٹ	-9.31443
▁عہد	-9.31484
▁دیتی	-9.31719
▁اقدام	-9.31757
رن	-9.31849
▁کیمپس	-9.31872
▁50	-9.31958
▁شراکت	-9.32005
▁پرتگالی	-9.32012
▁آپریشن	-9.32264
▁پروٹسٹنٹ	-9.32267
▁ٹاؤن	-9.3227
▁پرتگال	-9.32323
50	-9.32399
O	-9.32537
▁مرحل	-9.3255
یڈ	-9.32552
▁شرک	-9.32561
▁پب	-9.32629
▁جینیات	-9.32684
▁ایڈ	-9.32697
جیسے	-9.32715
▁آرتھوڈوکس	-9.32793
▁صدارت	-9.32793
▁ڈیجیٹل	-9.32794
افی	-9.32847
▁کور	-9.33035
P	-9.33424
▁سات	-9.33443
▁ڈیٹرائٹ	-9.33586
▁1980	-9.33598
▁آرمینیائی	-9.33612
ra	-9.33622
▁تیسری	-9.33714
▁پائی	-9.3378
▁خانہ	-9.33781
▁گرین	-9.33788
▁تجربہ	-9.33852
▁گے	-9.33882
▁پڑا	-9.33884
▁E	-9.33906
رسائی	-9.33948
▁نانجنگ	-9.34119
▁رات	-9.3432
▁ایگزیکٹو	-9.3442
▁پار	-9.34454
بیرونی	-9.34517
▁بیٹ	-9.34535
▁می	-9.34571
▁بیماری	-9.34855
با	-9.35004
نز	-9.35032
قات	-9.35099
شی	-9.35103
▁سوئٹزرلینڈ	-9.35193
▁گلی	-9.35404
▁لگانے	-9.35518
▁معاملات	-9.35518
رک	-9.35763
▁تیل	-9.35833
▁پہاڑی	-9.35842
▁نوٹ	-9.36075
▁کلاس	-9.36077
▁ریکارڈنگ	-9.36246
▁علاج	-9.36278
ٹین	-9.36415
▁اثرات	-9.36417
▁ٹائم	-9.36488
▁نامزد	-9.36532
ڑ	-9.36696
C	-9.36744
▁چارلس	-9.3682
▁گیس	-9.36876
▁عنصر	-9.371
▁زون	-9.37237
▁مقدم	-9.37314
▁بک	-9.37401
▁(19	-9.37466
سا	-9.37572
▁پورٹ	-9.37613
▁تانبے	-9.37652
▁ضلع	-9.37652
▁طالب	-9.37652
▁فریڈرک	-9.37652
▁دان	-9.37724
▁ونڈو	-9.37762
▁فلسفی	-9.3779
چون	-9.38004
▁انحصار	-9.38207
▁اخراج	-9.38214
▁1960	-9.38219
▁ذاتی	-9.38226
▁عد	-9.38282
▁کرسکتا	-9.38316
▁فارم	-9.38398
▁بحران	-9.38519
▁روز	-9.38728
▁البرٹ	-9.38784
▁حفاظت	-9.38935
▁بشمول	-9.39023
▁اقسام	-9.39045
▁مواصلات	-9.39045
▁ٹور	-9.39067
▁دوست	-9.39104
▁باقاعد	-9.39198
▁تھامس	-9.39205
کٹ	-9.39286
▁جائز	-9.39327
▁پہنچا	-9.39332
▁منتقلی	-9.39548
▁ایران	-9.39753
▁مرکب	-9.39765
▁افزائی	-9.39858
▁منگ	-9.40075
▁اطلاع	-9.40173
▁اظہ	-9.40252
▁پین	-9.40298
ڈا	-9.40452
▁کانفرنس	-9.40457
▁فائر	-9.40458
▁اصلاحات	-9.40519
▁مالک	-9.40628
▁مزدور	-9.40742
نک	-9.40931
▁آٹھ	-9.40953
▁فلسفہ	-9.40955
▁تبادل	-9.41028
باؤ	-9.41073
▁دعوی	-9.41153
ام	-9.4125
▁پیرو	-9.41428
is	-9.41528
چر	-9.41544
گل	-9.4158
▁چیمپئن	-9.41602
▁بالغ	-9.4164
لم	-9.41796
▁صومالی	-9.41822
▁اعداد	-9.41891
▁پاور	-9.41954
ویل	-9.41956
▁پلے	-9.42128
▁اجزاء	-9.42179
▁صنف	-9.42179
▁سماجی	-9.42179
▁جماعت	-9.42181
▁کھانا	-9.42222
وب	-9.42237
▁آؤٹ	-9.42469
▁حالی	-9.42509
▁زی	-9.42677
▁ترجیح	-9.42759
▁وار	-9.42824
اک	-9.42945
نو	-9.42981
▁بیونسی	-9.42992
حقیقی	-9.43063
▁یورینی	-9.43123
ڈین	-9.43148
th	-9.43229
▁نائیجیریا	-9.43343
▁میلبورن	-9.4335
▁پرست	-9.43487
▁موزیک	-9.43639
▁الحال	-9.43641
▁2003	-9.43655
▁لایا	-9.43801
▁رقم	-9.43931
▁قواعد	-9.43931
▁محل	-9.43931
▁موجودگی	-9.44003
حکام	-9.44018
▁نیپ	-9.44194
▁پڑتا	-9.44212
▁بو	-9.44232
▁بنائی	-9.44287
9	-9.44329
▁مشین	-9.44348
▁اتفاق	-9.44522
▁اٹلانٹ	-9.44522
▁K	-9.44606
▁ٹیسٹ	-9.44624
D	-9.44636
▁سامان	-9.44782
▁ماحول	-9.44811
▁مطالب	-9.44818
▁آرمی	-9.44875
جن	-9.45029
▁ڈاکٹر	-9.45143
وڈ	-9.45347
▁اسمبلی	-9.45415
▁جج	-9.45439
▁کاغذ	-9.45588
▁پتھر	-9.45714
▁پلائیماؤتھ	-9.45714
7	-9.45903
▁بٹ	-9.46031
▁شیل	-9.46072
دید	-9.46167
▁شپ	-9.46187
▁ورزی	-9.46343
w	-9.4643
▁کراس	-9.46547
▁G	-9.46552
▁تجزی	-9.46611
▁مظاہرہ	-9.46769
ہمیشہ	-9.4692
▁پیٹنٹ	-9.46943
▁ہان	-9.47174
▁لیا۔	-9.47176
▁رکاوٹ	-9.47224
▁روڈ	-9.47249
▁کمیٹی	-9.4732
▁آت	-9.4734
▁فراہمی	-9.47462
▁ترمیم	-9.4753
▁بڑھا	-9.47564
ارکین	-9.47754
پو	-9.4794
▁د	-9.47962
▁فیصل	-9.47969
اید	-9.48142
▁1950	-9.48165
کتے	-9.48478
▁گانا	-9.48494
▁چلنے	-9.4852
▁بشپ	-9.4854
▁توقع	-9.48622
▁بلک	-9.48654
▁کھولا	-9.48672
▁مزاحیہ	-9.48758
▁ہوجات	-9.48761
▁خطر	-9.48766
▁گئیں۔	-9.48838
▁برازیل	-9.49068
▁اسکاٹ	-9.49072
▁2001	-9.49126
▁ہدایت	-9.49203
▁پولی	-9.49266
یٹ	-9.49336
▁خشک	-9.49378
▁کمزور	-9.49387
▁معمولی	-9.49456
▁بری	-9.49607
▁23	-9.49655
▁ادارہ	-9.49692
▁مزاحمت	-9.49732
▁دیوار	-9.49782
▁مجموعہ	-9.49855
▁غلط	-9.49978
▁پول	-9.50039
▁ٹو	-9.50115
▁خاتمے	-9.50316
▁طوفان	-9.50316
دہ	-9.50346
وٹ	-9.50371
ڑوں	-9.5038
▁چیک	-9.50504
چو	-9.50521
▁صنعتی	-9.50598
▁میسن	-9.50681
es	-9.50817
▁کیریئر	-9.5085
▁درخت	-9.50946
▁عناصر	-9.50946
▁ملاقات	-9.50955
▁ویب	-9.5098
▁ہلاک	-9.51163
▁دلچسپ	-9.51262
▁میٹروپولیٹن	-9.51262
▁پچھل	-9.51262
▁وجود	-9.51262
▁میگزین	-9.51263
▁لائٹ	-9.51287
وان	-9.51346
▁میامی	-9.51585
▁آڈیو	-9.51587
▁رکھت	-9.51742
▁نمو	-9.51787
▁بھیجا	-9.51831
ch	-9.51899
▁برونکس	-9.51907
▁سالہ	-9.52025
III	-9.5203
▁فو	-9.52055
▁جڑ	-9.52075
▁مظاہر	-9.52103
40	-9.52171
▁تصویر	-9.52218
▁تربیت	-9.52218
▁ٹکسن	-9.52227
▁دس	-9.52298
▁در	-9.52395
▁نتائج	-9.52538
▁ٹینیسی	-9.52539
x	-9.52608
▁مریم	-9.52646
▁اختلاف	-9.5286
▁موثر	-9.52862
▁دفتر	-9.52862
▁انیسو	-9.52881
▁ہوں	-9.53087
.3	-9.53109
▁ہار	-9.53128
▁کنسرٹ	-9.53183
▁ہارڈ	-9.53199
▁زنک	-9.53218
▁جذبات	-9.53219
▁ملا	-9.53283
▁رینج	-9.53301
▁مصری	-9.53364
▁مصنف	-9.5342
▁ارتقا	-9.53506
▁اقت	-9.53514
▁تعاون	-9.53519
▁رکن	-9.53586
▁کنگ	-9.53611
▁ہوم	-9.53611
on	-9.53666
غ	-9.53724
▁فیڈرل	-9.53796
▁ہٹ	-9.53812
▁تعین	-9.53821
▁اونچائی	-9.53853
لز	-9.53899
▁شہریوں	-9.54016
▁خیالات	-9.54054
،000	-9.54056
▁بلیک	-9.54204
F	-9.54208
▁امن	-9.54332
ri	-9.54468
▁ہوگئے۔	-9.54476
▁سمجھ	-9.54499
▁شکاری	-9.545
▁کپاس	-9.54525
مو	-9.54543
فر	-9.54553
▁سائیکل	-9.54562
▁اسٹور	-9.54787
▁ماہ	-9.54788
▁پھانسی	-9.54811
عث	-9.54813
▁ملازمت	-9.54841
▁تحفظ	-9.54996
▁جیسی	-9.55005
▁لہر	-9.55021
▁منصوبے	-9.5514
▁پیچیدہ	-9.5514
▁میئر	-9.55258
ne	-9.55285
▁چیت	-9.55311
▁روکن	-9.55458
▁کمیونسٹ	-9.5548
▁لارڈ	-9.55504
T	-9.55509
▁غلبہ	-9.55519
▁فضائی	-9.55653
▁ع	-9.55768
▁سوسائٹی	-9.55801
▁ٹکنالوجی	-9.55801
▁علیحدگی	-9.55815
▁نما	-9.55889
دریائے	-9.55889
▁اخبار	-9.55991
▁جانور	-9.56104
▁ڈیاگو	-9.56134
▁الزبتھ	-9.56135
▁دولت	-9.56136
طے	-9.56164
▁رجحان	-9.56317
▁دستاویز	-9.56342
▁احتجاج	-9.56467
▁سیئٹل	-9.56467
▁یونیورسل	-9.56467
▁پولینڈ	-9.56484
▁آلہ	-9.56552
▁اہمیت	-9.56705
N	-9.56772
▁اسٹوڈیو	-9.56801
▁امداد	-9.56802
▁اشار	-9.56836
▁لوئس	-9.5701
▁معاشرے	-9.57137
▁رابرٹ	-9.57138
▁برک	-9.57156
▁مسلمان	-9.57168
▁مال	-9.57243
▁حالات	-9.57252
▁H	-9.57319
▁ساز	-9.57465
▁نگرانی	-9.57474
یک	-9.57584
▁متن	-9.57636
سلح	-9.57647
▁رہتا	-9.57668
▁P	-9.57669
▁ٹریک	-9.5771
▁بڑھان	-9.57718
▁دوم	-9.57781
▁پوری	-9.57788
▁حامی	-9.57812
▁سورج	-9.57833
▁گوئی	-9.57854
▁چاہئے۔	-9.57922
▁جذب	-9.5802
▁ہنری	-9.58021
▁رد	-9.58111
▁کاپی	-9.58115
▁فیسٹیول	-9.5815
▁ہوگئی۔	-9.58181
▁فین	-9.58246
▁مور	-9.58302
▁ڈائی	-9.58422
▁بس	-9.58545
رشتہ	-9.58805
▁مقدس	-9.58842
▁قبرص	-9.58897
▁بم	-9.58997
ur	-9.59059
▁26	-9.59087
چوان	-9.59168
▁الاسکا	-9.59174
▁ادارے	-9.59181
▁T	-9.59187
نج	-9.59192
▁2002	-9.59204
▁بادشاہی	-9.59327
▁انٹر	-9.5934
▁فہرست	-9.59382
▁افتتاح	-9.59518
▁کاتالان	-9.59518
▁لکھی	-9.59534
▁والدہ	-9.59536
▁پو	-9.59601
صد	-9.59618
▁28	-9.59675
▁دل	-9.59694
▁جاسکتی	-9.59772
▁سبز	-9.59862
▁عہدیدار	-9.59863
▁مینڈولین	-9.59864
▁پاپ	-9.59868
▁لمبائی	-9.59883
▁بحر	-9.59932
▁اولمپک	-9.59959
L	-9.59962
برگ	-9.59993
▁بناتے	-9.60052
شت	-9.60066
30	-9.60147
▁انٹرنیشنل	-9.60209
▁تصدیق	-9.60209
▁مستحکم	-9.60209
▁نفسیات	-9.60209
▁ادب	-9.60263
▁ڈائریکٹر	-9.60273
▁ڈیموکریٹ	-9.60557
▁پریمیئر	-9.60557
▁لاگو	-9.60594
▁موضوع	-9.6076
▁سرما	-9.60835
▁لائسنس	-9.60904
▁محکم	-9.60904
▁اڈہ	-9.60907
▁پبلک	-9.60921
▁بحالی	-9.60985
▁بدل	-9.61095
ئن	-9.61172
انو	-9.6119
▁آرمینیا	-9.6122
▁ذرائع	-9.61254
وین	-9.61275
▁پلیٹ	-9.61357
عض	-9.61376
▁غالب	-9.61605
▁شیشے	-9.61605
▁مؤ	-9.61653
▁عوام	-9.61874
▁مثبت	-9.61957
▁اشاعت	-9.61957
▁چند	-9.62006
at	-9.62035
▁کردی	-9.62236
▁گے۔	-9.62274
▁کمیشن	-9.62282
▁بھاری	-9.62358
▁باشند	-9.6241
▁نیز	-9.62455
▁کہانی	-9.62455
▁22	-9.62501
▁سمجھت	-9.62549
▁کثیر	-9.62667
او	-9.62691
▁سڑک	-9.62693
▁امریکیوں	-9.627
R	-9.62761
▁جلت	-9.62872
▁فوٹو	-9.62884
▁خط	-9.63019
▁انفرادی	-9.63029
فنکاروں	-9.631
ئر	-9.63104
.0	-9.63121
▁لیبل	-9.63174
ئس	-9.63227
▁پورا	-9.63293
▁مسئلہ	-9.63345
▁مشاہد	-9.63378
▁نچل	-9.63379
▁ڈارون	-9.63381
▁ماہرین	-9.63515
▁ہائیک	-9.63525
▁بانی	-9.63549
▁گو	-9.63603
▁لاج	-9.63612
▁انتظامیہ	-9.6372
▁کمانڈر	-9.63728
▁کارپوریشن	-9.63736
▁بارسلون	-9.63736
ویں	-9.63784
غور	-9.64042
▁پریس	-9.64044
▁چوٹی	-9.64046
▁مشن	-9.64051
▁پیمائش	-9.64096
▁متعلقہ	-9.64148
▁شعب	-9.64223
▁ہٹا	-9.64457
▁شام	-9.6452
حکمت	-9.6452
▁پن	-9.64573
▁اسکور	-9.64675
▁امکان	-9.64678
ھ	-9.64681
سل	-9.6473
▁فوری	-9.6478
▁ملتا	-9.64802
▁لاگ	-9.64803
▁قلع	-9.64819
▁تہوار	-9.64824
▁راستے	-9.64832
▁درد	-9.64863
▁نشریات	-9.6488
ia	-9.64881
▁ایشیاء	-9.64881
▁چونک	-9.65008
▁چارٹر	-9.65062
▁معن	-9.6511
▁صوبے	-9.65183
▁عارض	-9.65183
▁معاصر	-9.65184
حصر	-9.65185
▁گواہ	-9.65185
ائ	-9.65202
▁ڈال	-9.65243
▁آسان	-9.65392
▁مند	-9.65517
▁ڈیپارٹمنٹ	-9.65548
▁ہائیڈروجن	-9.65553
▁منظر	-9.65566
▁فائل	-9.65569
▁مارک	-9.65603
▁پانچو	-9.65619
▁یقین	-9.6566
.1	-9.65701
یرہ	-9.65723
▁تکنیک	-9.65763
▁نشر	-9.65862
▁سگنل	-9.65914
ٹل	-9.65926
▁ہوٹل	-9.65966
▁ایوارڈ	-9.66015
▁عطی	-9.66025
▁60	-9.66073
▁دھات	-9.66179
▁فنڈ	-9.66372
▁بح	-9.66396
بینہ	-9.66694
▁سمت	-9.66715
▁نائٹ	-9.66763
▁ریلیز	-9.6681
لن	-9.66875
v	-9.66883
▁آرسنل	-9.67022
▁نسبتا	-9.6704
▁تیسرا	-9.67042
▁تکنیکی	-9.67176
▁تخمینہ	-9.67187
▁انڈ	-9.67211
▁B	-9.67392
▁اعزاز	-9.67393
▁شکاگو	-9.67393
▁یسوع	-9.67393
▁حدود	-9.6741
H	-9.67583
ro	-9.67732
▁شراب	-9.67767
▁ایشیائی	-9.67789
▁آٹھو	-9.67872
▁خواہش	-9.68141
▁رچمنڈ	-9.68141
▁فلوریڈا	-9.68141
▁عقید	-9.6821
▁انچ	-9.68248
▁وہاں	-9.68283
▁مخالفت	-9.68298
▁ریکارڈز	-9.68431
▁پذیر	-9.68517
▁وادی	-9.68522
▁سست	-9.68534
▁دوسر	-9.6857
▁حال	-9.68582
نیگر	-9.68582
پس	-9.6862
▁اسلام	-9.68668
▁واقعہ	-9.68723
سر	-9.6887
▁ماخوذ	-9.68894
▁سائنسدان	-9.68898
▁میڈیک	-9.68923
▁ڈالا	-9.68952
▁پٹ	-9.68965
▁ممبران	-9.69011
▁یاد	-9.69123
▁پیٹر	-9.69221
خر	-9.69264
حتمی	-9.69273
▁حیدرآباد	-9.69273
▁درست	-9.69273
▁مورخ	-9.69287
ڈس	-9.69344
▁ماسٹر	-9.69389
ta	-9.69467
وار	-9.69612
▁عکاسی	-9.69653
▁امیدوار	-9.69659
▁پولش	-9.69705
▁چلا	-9.69951
▁موسیقار	-9.70035
▁برما	-9.70104
▁مشکل	-9.70297
▁یونیورسٹیوں	-9.70302
▁فاتح	-9.70418
▁برابر	-9.70421
▁آئرش	-9.70437
▁لبرل	-9.70483
▁آل	-9.70591
▁جیتا	-9.70737
▁لیبیا	-9.70771
st	-9.70954
▁گنی	-9.71055
▁ادویات	-9.71188
▁زبانیں	-9.71189
▁احاطہ	-9.71315
▁برن	-9.71329
لیٹ	-9.71334
رون	-9.71476
▁سک	-9.71507
▁مخفف	-9.71576
▁تخت	-9.71576
▁بولت	-9.71787
▁شعبے	-9.71828
▁کمپنیوں	-9.71902
▁موازنہ	-9.71965
▁1940	-9.71989
▁حیاتیاتی	-9.72012
▁بنات	-9.72013
ٹرو	-9.72019
17	-9.72156
گراف	-9.72158
▁خراب	-9.72174
▁قرآن	-9.72356
▁پروجیکٹ	-9.72357
▁آگ	-9.72385
▁بلیو	-9.72446
▁خلا	-9.72491
▁ہزار	-9.72496
▁گھنٹے	-9.72564
▁تیسر	-9.72589
um	-9.72609
▁80	-9.72651
▁فائنل	-9.72702
-19	-9.72719
جا	-9.72742
▁کارکن	-9.72841
پور	-9.72865
▁درمیانی	-9.72993
▁چھوٹ	-9.7303
جر	-9.73116
▁قبائل	-9.73235
ā	-9.73537
▁جھیل	-9.73537
▁معاہدوں	-9.73537
▁کنونشن	-9.73537
▁محمد	-9.73544
▁ضم	-9.7392
▁ہسپتال	-9.73934
اخذ	-9.73961
لین	-9.73978
▁یورو	-9.73995
ڈل	-9.74049
▁آرٹسٹ	-9.74102
▁لیبر	-9.74158
▁محسوس	-9.74332
▁بحث	-9.74334
▁طرز	-9.74337
.9	-9.74478
.5	-9.7449
▁ایجنسی	-9.74493
.8	-9.74518
▁ایسی	-9.74567
▁مون	-9.7468
▁پھول	-9.74732
▁بردار	-9.74778
▁غ	-9.74788
▁چنگ	-9.74792
▁کش	-9.7489
▁پہاڑوں	-9.74935
▁اکیڈمی	-9.75134
▁تقریر	-9.75134
▁ثبوت	-9.75134
▁پروڈکشن	-9.75135
▁سنسکرت	-9.75147
▁کھیلا	-9.75179
▁27	-9.75317
▁آفس	-9.75457
▁ہیلینا	-9.75558
یئر	-9.75591
▁زمینی	-9.75591
▁واٹر	-9.75637
ائے	-9.7566
شیاء	-9.75921
ٹیل	-9.76009
▁بج	-9.76065
ولا	-9.76074
▁سوچ	-9.76197
▁ممکن	-9.76276
▁استعف	-9.76348
▁خودمختار	-9.76348
▁ہیڈکوارٹر	-9.76348
▁فاصلے	-9.76348
▁جنگل	-9.76448
37	-9.76551
▁مسلم	-9.76725
▁جغرافیا	-9.76756
▁مناسب	-9.76757
▁خیالی	-9.76759
te	-9.76801
▁چلانے	-9.76892
▁ایڈورڈ	-9.76896
▁سزا	-9.76901
▁فریم	-9.76995
▁گی۔	-9.76998
اف	-9.77005
ولوجی	-9.77161
تر	-9.77335
it	-9.77416
▁مداخلت	-9.77578
▁جوہری	-9.77592
لیس	-9.7761
18	-9.77645
li	-9.77756
▁ہوگا	-9.77868
ود	-9.77965
▁زرعی	-9.77991
▁مضامین	-9.77991
▁منافع	-9.77991
▁سلوک	-9.78063
▁90	-9.78104
▁گول	-9.78265
اور	-9.78315
▁یقینی	-9.78326
U	-9.78356
▁لباس	-9.78406
▁شوارز	-9.78407
▁زراعت	-9.78407
10	-9.78468
▁تناسب	-9.78558
▁خریدا	-9.78659
▁ہل	-9.78689
--	-9.78735
ic	-9.78795
▁ٹرانس	-9.78821
تشدد	-9.78823
▁سیاحت	-9.78862
▁رویے	-9.78912
▁ٹیکنالوجی	-9.78967
▁پرندے	-9.78985
▁عیسائیت	-9.79041
▁جانچ	-9.79225
▁صحرا	-9.79241
▁مشور	-9.79241
▁دکھایا	-9.79249
▁بائبل	-9.79253
▁1991	-9.79255
پل	-9.79323
ایک	-9.79387
دو	-9.79511
شین	-9.79661
▁سیکیورٹی	-9.79661
▁اسٹار	-9.79816
▁لاس	-9.79845
▁تقریب	-9.79974
▁لنک	-9.80058
▁ذخیرہ	-9.80083
▁وزارت	-9.80084
▁کرلیا	-9.80089
داف	-9.80165
▁ٹاور	-9.80253
▁مٹی	-9.80338
▁صومالیہ	-9.80367
ئ	-9.80446
-1	-9.80454
▁مونٹی	-9.80463
▁ابتدا	-9.80474
▁متحرک	-9.80507
▁1930	-9.80532
▁فلپ	-9.80683
▁مستق	-9.80754
▁لقب	-9.8094
-2	-9.80943
▁پنک	-9.80984
▁ہوئیں	-9.81046
▁ور	-9.8116
▁ارکان	-9.81362
▁وائی	-9.81458
▁گرا	-9.81515
انت	-9.81556
▁سنبھال	-9.81737
▁مساوی	-9.81792
▁D	-9.81829
▁ہڈی	-9.81899
▁سلاو	-9.82036
▁تبتی	-9.82107
▁بحال	-9.82141
▁ہوگیا	-9.82265
▁جینوم	-9.8227
▁سروے	-9.8227
یر	-9.82282
os	-9.82386
▁سوئس	-9.82408
▁لکھے	-9.82419
64	-9.82435
▁صف	-9.82613
▁بشریات	-9.82653
▁گریٹ	-9.82832
▁ڈے	-9.82946
▁U	-9.83039
25	-9.83051
▁بہن	-9.83219
▁نمون	-9.83225
▁طبق	-9.83234
▁وو	-9.83277
اش	-9.83354
▁دیکھی	-9.8336
▁آرٹس	-9.83393
▁رہا۔	-9.83404
▁تحلیل	-9.83524
▁وجوہات	-9.83524
▁سپیکٹر	-9.83526
▁پرواز	-9.8354
▁مصروف	-9.83554
مام	-9.83697
▁جوڑت	-9.83714
الپس	-9.83782
▁200	-9.83807
59	-9.83814
▁ٹرین	-9.83916
اق	-9.83938
▁آرکائیو	-9.83963
▁اسپیلبرگ	-9.83963
▁مختار	-9.83963
▁رچرڈ	-9.83966
▁سونے	-9.84065
▁شہزادہ	-9.84133
▁فورسز	-9.842
آ	-9.84306
60	-9.84379
▁یادگار	-9.84404
▁ریزرو	-9.84404
▁خطرہ	-9.84649
▁گیل	-9.84663
▁ٹن	-9.84791
▁منصوبوں	-9.84846
▁عورت	-9.84846
▁تفریح	-9.84846
▁کیلنڈر	-9.84847
▁ہفتہ	-9.84847
بن	-9.84868
یکس	-9.84909
▁والدین	-9.85024
▁فر	-9.85089
▁امیر	-9.8521
▁پڑوس	-9.85217
▁وولٹی	-9.85259
اتی	-9.85277
▁سم	-9.8528
▁تشریح	-9.8529
▁حرکت	-9.8529
▁خانقاہ	-9.8529
▁باکس	-9.85393
▁تحریر	-9.8547
▁تعمیرات	-9.85507
▁چلات	-9.85546
▁ایبی	-9.85554
▁تحقیقات	-9.85641
▁انٹارکٹیک	-9.85737
▁جرائم	-9.85737
▁اٹھایا	-9.85737
▁1997	-9.85748
▁نوآبادیاتی	-9.85762
یری	-9.85887
▁70	-9.859
سک	-9.86034
▁مالیات	-9.86118
as	-9.86147
▁جارہ	-9.86157
▁رابط	-9.86164
▁خالص	-9.86185
▁مہارت	-9.86186
▁وسائل	-9.86188
▁بھال	-9.8619
▁لیزر	-9.86192
▁واپسی	-9.86316
33	-9.86409
▁ریپبلکن	-9.8651
▁لفٹ	-9.86512
▁پروڈیوسر	-9.86636
▁ایڈیشن	-9.86669
مان	-9.86685
ئین	-9.86715
▁ممتاز	-9.87088
▁گلوکار	-9.8709
▁ترکی	-9.8709
V	-9.87195
▁مصنفین	-9.87209
▁خون	-9.87231
فیا	-9.87264
▁کہتے	-9.87266
پٹ	-9.87309
▁اپیل	-9.87328
▁آتا	-9.87352
▁شی	-9.87426
▁500	-9.87494
▁والنسیا	-9.87543
▁پناہ	-9.87545
▁آکس	-9.87593
▁تیاری	-9.87613
▁روٹ	-9.87634
▁ہیم	-9.87699
▁وین	-9.87822
▁مصنوع	-9.87875
▁ایوارڈز	-9.87887
ائل	-9.87935
▁بندوق	-9.88
▁کشی	-9.88092
▁انعام	-9.88108
▁زمان	-9.88109
95	-9.88301
▁لوک	-9.88448
▁پھیلاؤ	-9.88494
▁قبیل	-9.88517
▁ایٹ	-9.88682
▁لیون	-9.88682
▁آہنگی	-9.88721
▁ہزاروں	-9.88755
افٹ	-9.88876
▁بائیوٹک	-9.88887
▁متحد	-9.88902
ٹیک	-9.88914
▁اپولو	-9.88916
▁ماس	-9.88936
اہد	-9.88942
▁برق	-9.8895
▁کمر	-9.8895
ریٹ	-9.88953
▁رائٹ	-9.89031
▁پلانٹ	-9.8915
B	-9.89175
▁گارڈ	-9.89228
▁مطالع	-9.89229
▁تصورات	-9.89258
▁فل	-9.89306
▁عقائد	-9.89382
▁کیتھیڈرل	-9.89382
▁مساوات	-9.89382
قابو	-9.89384
99	-9.89404
▁شیئر	-9.89422
▁رومی	-9.89448
ابت	-9.89472
وث	-9.89642
▁ڈیوڈ	-9.8965
▁31	-9.89973
▁(2	-9.90094
▁میٹرو	-9.90108
▁R	-9.90266
▁پہلو	-9.903
اج	-9.90316
▁خانے	-9.90326
▁لیڈ	-9.90373
▁انسانیت	-9.90398
▁ہندو	-9.90431
میائی	-9.90437
▁رائے	-9.90515
▁اسٹون	-9.9062
وپ	-9.90637
73	-9.90689
▁نوآبادیات	-9.90762
ni	-9.90774
▁کثرت	-9.90784
▁وصول	-9.90784
▁زوال	-9.90794
▁افسران	-9.90805
▁چارلسٹن	-9.90819
▁1920	-9.90823
▁ہانگ	-9.90875
80	-9.90938
اثر	-9.9095
سکی	-9.91119
▁مضافات	-9.91255
▁منسوخ	-9.91255
▁پاؤنڈ	-9.91255
▁معرو	-9.91289
▁چل	-9.913
▁مشق	-9.91372
▁نیومن	-9.91407
▁پرانی	-9.91416
▁اتحادی	-9.91551
▁گریڈ	-9.91622
کشن	-9.91646
انگ	-9.9169
▁اریٹیریا	-9.9173
▁پودے	-9.9173
▁خفی	-9.91733
▁1998	-9.91747
▁1999	-9.9175
▁بلڈنگ	-9.91776
▁ویسٹرن	-9.91778
▁بادشاہت	-9.91794
▁آسٹریلیائی	-9.91806
فطرت	-9.91846
un	-9.92091
▁تعینات	-9.92099
انداز	-9.92143
▁چینل	-9.92155
▁گاڑی	-9.92161
48	-9.92173
na	-9.92205
▁امی	-9.92242
▁ٹرمینل	-9.92302
▁دیہی	-9.92309
▁ناکامی	-9.92324
▁گن	-9.92345
▁برادری	-9.92384
el	-9.92525
▁W	-9.92596
▁کھلاڑی	-9.92606
▁ہفت	-9.92609
▁ادبی	-9.9262
.7	-9.92632
▁برمودا	-9.92684
▁نظم	-9.92684
▁سرکٹ	-9.92745
وو	-9.92768
▁انجینئرنگ	-9.92773
▁عربی	-9.92777
▁ث	-9.92825
▁بدعنوانی	-9.92873
لمبی	-9.93006
بول	-9.93079
▁لگ	-9.93093
▁چی	-9.93119
1,	-9.93124
se	-9.9313
▁کھڑ	-9.93152
▁مثالیں	-9.93372
▁کینن	-9.93392
▁تہ	-9.93443
▁ایوان	-9.93468
▁فنکار	-9.93569
▁لیس	-9.93585
.2	-9.93615
▁اسکوائر	-9.93648
▁تجدید	-9.9366
▁1989	-9.93661
وٹیوب	-9.93684
▁کھلاڑیوں	-9.93727
▁بانڈ	-9.93747
▁مندر	-9.93832
ti	-9.93833
ونگ	-9.93834
فا	-9.93879
▁راستہ	-9.93967
▁ٹریف	-9.94051
▁عبور	-9.94134
▁رسم	-9.94139
▁نکال	-9.94142
▁بازی	-9.94145
▁ناول	-9.94151
▁بش	-9.94205
▁کیں۔	-9.94256
▁ڈرائیو	-9.94487
j	-9.94495
▁امپیریل	-9.94621
▁تہذیب	-9.94621
▁نرم	-9.94635
مون	-9.94719
▁پرستی	-9.94766
70	-9.94944
شپ	-9.94981
▁تسلسل	-9.95111
▁پروفیسر	-9.95111
▁روح	-9.95142
▁منفی	-9.95162
مد	-9.95284
ing	-9.95442
▁پیٹ	-9.95504
کار	-9.95524
▁اختیارات	-9.95554
▁اجلاس	-9.95604
▁شمولیت	-9.95604
▁کثافت	-9.95604
ائن	-9.95849
▁پوائنٹ	-9.95852
il	-9.95986
▁ناقابل	-9.96099
▁بستی	-9.96145
▁سہولت	-9.96177
▁لگت	-9.96241
▁O	-9.9638
▁بورو	-9.96496
لنگ	-9.96507
86	-9.96528
▁ماہی	-9.96587
▁برائ	-9.96593
▁ساخت	-9.96593
▁باہمی	-9.96597
▁اعتماد	-9.96599
▁V	-9.96614
▁پرائمری	-9.96615
▁بہار	-9.9662
▁گرمی	-9.96824
▁لوڈ	-9.96836
▁بوٹ	-9.96932
▁تابکاری	-9.97097
▁کریڈٹ	-9.97097
▁پوپر	-9.97103
▁صورت	-9.97135
▁کیبل	-9.9714
▁کان	-9.97191
ائٹ	-9.97258
▁پیل	-9.97429
ڈون	-9.9751
▁ہاتھ	-9.9757
34	-9.97582
▁ساتھ۔	-9.97619
▁مارا	-9.97646
▁(18	-9.97668
36	-9.97725
▁سرد	-9.97803
G	-9.9809
▁الیگزینڈر	-9.98104
▁فاؤنڈیشن	-9.98108
▁آمد	-9.9832
▁پروشین	-9.98343
▁پینٹ	-9.98396
55	-9.98419
▁علیحد	-9.98591
▁بھائی	-9.98592
▁روایات	-9.98612
▁کیلیفورنیا	-9.98612
▁چیلنج	-9.98612
▁گوتھک	-9.98612
▁مفت	-9.98613
▁کنارے	-9.98614
▁ٹیٹو	-9.98619
▁سینیٹ	-9.98633
▁دشمن	-9.98664
▁وزن	-9.98718
ma	-9.98743
▁انگریزوں	-9.98787
15	-9.98807
▁نوٹری	-9.98848
فون	-9.98901
▁ریاضی	-9.98987
▁سونی	-9.99008
▁دینا	-9.99027
▁انقلابی	-9.99043
▁ایونٹ	-9.9908
▁پریسبیٹیرین	-9.99122
▁ڈسٹرکٹ	-9.99122
▁ڈیفنس	-9.99122
▁کنسول	-9.99123
▁دیوتاؤں	-9.99132
▁کھیلت	-9.99162
▁ٹریڈ	-9.99256
زو	-9.99285
▁موقع	-9.99635
▁احساس	-9.99663
▁انض	-9.99663
▁فارسی	-9.99696
▁جیک	-9.99783
▁لیک	-9.99843
ٹنگ	-9.99932
▁برس	-9.99938
▁35	-10.0013
▁لائنوں	-10.0014
▁نوعیت	-10.0015
▁رسمی	-10.002
92	-10.0022
▁ڈومین	-10.0036
▁لین	-10.0045
39	-10.0052
▁اکاؤنٹ	-10.0067
▁بوجھ	-10.0067
▁جائیداد	-10.0067
▁کارنیول	-10.0067
یٹر	-10.0068
▁بلب	-10.007
▁پہنچن	-10.0076
▁جوزف	-10.0078
▁اسٹاف	-10.0091
▁الٹ	-10.0116
▁تجربے	-10.0119
▁تفویض	-10.0119
▁وارسا	-10.0121
▁انڈیا	-10.0124
لس	-10.0133
▁ریس	-10.0136
▁انفیک	-10.0137
▁سیکشن	-10.0144
▁سلاوی	-10.0144
▁29	-10.0146
▁اقلیتی	-10.0155
▁جنگوں	-10.0156
▁پلیئر	-10.016
42	-10.0165
▁کارل	-10.0168
▁پیسیفک	-10.0171
▁قوت	-10.0171
▁ہنگری	-10.0172
▁فلاڈیل	-10.0173
▁بازنطینی	-10.0176
▁کانگو	-10.0182
68	-10.0184
▁پانے	-10.0186
▁ساتو	-10.0189
▁چھٹی	-10.0205
▁ایرانی	-10.0205
▁خورد	-10.0215
ca	-10.0222
▁نورفو	-10.0224
▁لکھنے	-10.0226
▁مسئل	-10.0229
برا	-10.0231
▁پرنٹ	-10.0243
ارا	-10.0258
▁فورٹ	-10.0261
ٹز	-10.0274
▁سیاست	-10.0277
▁ڈرام	-10.0279
▁کیمپ	-10.0288
75	-10.0288
▁تباہی	-10.0292
▁مطالعات	-10.0292
ہم	-10.0297
از	-10.0312
▁سیکھن	-10.0316
▁سینڈ	-10.0317
▁شہزادی	-10.0318
▁بیسو	-10.0319
▁فلموں	-10.0325
▁خاتمہ	-10.033
▁اوپیرا	-10.033
▁لازمی	-10.033
▁کپڑے	-10.033
▁وران	-10.0332
▁آپریشنز	-10.0332
▁پادری	-10.0333
▁قبض	-10.0341
▁مارول	-10.0343
▁الہیات	-10.0347
ٹرا	-10.035
▁45	-10.0352
▁de	-10.0366
▁بیونس	-10.037
مخلوط	-10.0383
▁ورجینیا	-10.0383
▁ریسرچ	-10.0384
▁قیدی	-10.0397
سادہ	-10.0403
▁شکلیں	-10.0404
لر	-10.0411
ائد	-10.0416
▁II	-10.043
روس	-10.0433
▁اجتماع	-10.0437
▁رضامندی	-10.0437
▁VI	-10.0437
▁خرچ	-10.0438
▁گولی	-10.0445
▁اتحادیوں	-10.0451
.6	-10.0466
▁دیں	-10.0485
▁ہپ	-10.0487
▁ہدف	-10.0491
▁قدم	-10.0491
▁کینیڈین	-10.0498
▁ٹیکساس	-10.0498
▁اوور	-10.0501
مقابلہ	-10.0508
▁میری	-10.0517
▁طاقتور	-10.0521
▁بالترتیب	-10.0535
پریشن	-10.0542
▁سیکرٹری	-10.0546
▁روزان	-10.0548
▁رہنماؤں	-10.0549
ساو	-10.0549
▁مطابقت	-10.0554
▁گرفتار	-10.0558
▁کلی	-10.0562
▁مقا	-10.0564
▁گھ	-10.0593
▁حساب	-10.06
▁انفرا	-10.0601
▁زائر	-10.0601
▁امید	-10.0605
▁کاربن	-10.0606
▁انتظامی	-10.0622
▁مسافروں	-10.0622
▁اداکار	-10.0622
▁اصطلاحات	-10.0635
.4	-10.0636
▁اونچی	-10.0639
▁ماؤنٹ	-10.0646
لڈ	-10.0653
▁درآمد	-10.0655
▁معمار	-10.0656
▁پروٹین	-10.0656
▁ہاپ	-10.0662
▁تنوع	-10.0665
ینٹ	-10.0666
▁فیشن	-10.0678
رام	-10.0708
▁پرنس	-10.071
▁صحیح	-10.071
▁پاکستان	-10.0711
▁است	-10.0716
▁کٹ	-10.0716
انس	-10.0727
▁ایو	-10.0727
▁طبی	-10.0741
▁تحریری	-10.0744
▁معیارات	-10.0745
46	-10.0752
▁مس	-10.076
▁ریٹ	-10.0765
▁تقرری	-10.0766
▁ردعمل	-10.0766
▁صورتحال	-10.0766
▁معدوم	-10.0766
▁نائب	-10.0769
▁جارجیا	-10.0773
▁شخصیت	-10.0774
▁تنازع	-10.0774
▁مقبولیت	-10.0775
▁پا	-10.0782
▁ڈیوک	-10.0787
▁شان	-10.0791
▁تاز	-10.0792
▁طیار	-10.081
▁وراثت	-10.0822
▁محبت	-10.0824
56	-10.0824
98	-10.0828
▁بیجنگ	-10.0837
▁بہتری	-10.0838
▁جم	-10.0842
▁دستاویزات	-10.0843
▁بمباری	-10.0843
ha	-10.0846
▁نشست	-10.0861
پیک	-10.0862
▁ام	-10.0863
▁بادشاہوں	-10.0869
▁سوال	-10.0873
وواہ	-10.0877
▁ذخائر	-10.0878
▁عرفی	-10.0878
▁نصوص	-10.0878
▁حوال	-10.0889
▁شری	-10.0899
nd	-10.0902
▁نسلوں	-10.0907
▁بیورو	-10.0907
▁عملے	-10.0914
فیئر	-10.0922
▁ٹرانسمیشن	-10.0935
▁مجرم	-10.0935
▁براؤن	-10.0935
▁ایشیا	-10.0937
▁ٹری	-10.0942
▁چلایا	-10.0943
کون	-10.0945
▁کورک	-10.0955
شم	-10.0965
▁بیٹی	-10.0982
▁ڈین	-10.0984
ائزیشن	-10.0991
▁اتھارٹی	-10.0991
▁انڈسٹری	-10.0991
▁اسرائیلی	-10.0994
▁ہفتوں	-10.1001
▁آبائی	-10.1002
▁فورا	-10.1004
▁ویلز	-10.1011
▁مائیکروس	-10.1021
▁ایریا	-10.1027
▁باشندے	-10.1032
▁معلوم	-10.1036
▁رہ	-10.1044
▁رکھے	-10.1046
کھٹمنڈو	-10.1049
▁اسفالٹ	-10.1049
▁امتیاز	-10.1049
▁تووالو	-10.1049
81	-10.1068
▁اسکالرز	-10.107
یکل	-10.1076
▁عوامل	-10.1078
▁کارڈینل	-10.1079
▁فرنٹ	-10.1093
▁لسانی	-10.1094
▁اع	-10.1096
▁کلبوں	-10.1099
▁عبادت	-10.1106
▁مراکز	-10.1106
▁سوچا	-10.1106
▁راہب	-10.1108
si	-10.1109
▁رن	-10.111
این	-10.1116
▁شکاریوں	-10.1121
▁بیٹا	-10.113
ونڈ	-10.1136
▁ہیٹن	-10.1138
▁باقیات	-10.1142
▁غلامی	-10.1152
▁پرفارم	-10.1152
ایس	-10.1157
▁ون	-10.1158
▁ادائیگی	-10.1164
▁ویتنام	-10.1164
▁ہوچک	-10.1165
یلا	-10.1165
▁تغیرات	-10.1168
▁برلن	-10.1169
▁گنا	-10.117
▁آٹو	-10.1174
نور	-10.1188
▁(3	-10.1192
▁ہیرو	-10.1194
▁L	-10.1201
▁تجرباتی	-10.1203
▁یوکرائن	-10.1222
▁نینٹینڈو	-10.1222
▁ٹائٹل	-10.1222
▁بنے	-10.1224
▁فرینک	-10.1242
▁میٹا	-10.1245
ینا	-10.1252
▁چوتھی	-10.1259
ڑھ	-10.1259
الا	-10.1267
79	-10.1268
▁ڈالن	-10.1275
▁پھل	-10.128
▁خاتون	-10.128
▁کیشنز	-10.1284
▁آدھ	-10.1286
49	-10.1296
▁تجربات	-10.13
▁طیارے	-10.1301
▁ڈبل	-10.1306
et	-10.1318
▁مادہ	-10.1323
▁راؤنڈ	-10.1339
▁غلطی	-10.1339
▁یوگوسلاویہ	-10.1339
▁بخش	-10.1339
▁پیروکار	-10.134
▁ڈاک	-10.1341
▁1945	-10.1341
▁منگول	-10.1354
پلا	-10.136
ئے	-10.1363
53	-10.1365
▁منٹ	-10.1374
▁چوتھ	-10.1377
لٹ	-10.1381
▁ٹیمیں	-10.1385
▁ماضی	-10.1398
▁متنازع	-10.1398
▁منشیات	-10.1398
▁فصل	-10.1398
,000	-10.1401
مور	-10.1402
▁مقناطیسی	-10.1408
id	-10.1418
شر	-10.1433
ph	-10.1434
▁نامی	-10.144
▁کھول	-10.1452
▁سیکنڈ	-10.1453
▁ڈیک	-10.1456
ter	-10.1457
ə	-10.1458
▁تصاویر	-10.1458
▁مضمون	-10.1458
اری	-10.1462
ابط	-10.1462
▁بڑھایا	-10.147
▁زد	-10.1474
سین	-10.1491
▁پڑھن	-10.1496
نیہ	-10.1505
54	-10.1512
▁ایورٹن	-10.1518
▁اجداد	-10.1518
▁میڈیسن	-10.1518
▁1939	-10.152
▁گوام	-10.152
▁سامعین	-10.1521
▁نیم	-10.1534
برٹ	-10.1538
13	-10.1542
51	-10.1556
85	-10.1563
ریس	-10.1565
▁باس	-10.1566
▁لئے۔	-10.1575
▁منفرد	-10.1578
▁1988	-10.158
▁کینس	-10.1586
▁فرد	-10.1586
▁پیانو	-10.1592
43	-10.1592
▁لائیو	-10.1594
سٹن	-10.1594
▁حریف	-10.1595
▁ایسڈ	-10.1606
▁چارج	-10.1607
▁پیرا	-10.1615
▁رکھا۔	-10.1619
▁لاک	-10.1628
▁ایمان	-10.1634
...	-10.1639
▁خدش	-10.1639
▁نمک	-10.1639
▁ہلک	-10.164
▁1979	-10.1641
19	-10.1648
▁پڑوسی	-10.1649
W	-10.165
ol	-10.1652
ائز	-10.1654
بندی	-10.1664
▁ہوگیا۔	-10.1672
▁(200	-10.1675
ضو	-10.1684
▁بیماریوں	-10.1691
▁بپٹسٹ	-10.17
▁جدوجہد	-10.17
▁شرائط	-10.17
▁کائنات	-10.17
▁ڈانس	-10.1702
▁خریداری	-10.1707
▁اراد	-10.1709
▁روان	-10.1725
▁آہنگ	-10.1726
▁میموری	-10.1743
91	-10.1746
▁تشخیص	-10.1761
▁ساؤنڈ	-10.1761
▁معامل	-10.1762
▁1994	-10.1762
52	-10.178
67	-10.1783
▁ہیل	-10.1786
▁ہائیڈرو	-10.1788
میٹ	-10.1789
فل	-10.1791
شا	-10.1792
▁تار	-10.1803
▁اصلاح	-10.1809
اعت	-10.1818
رومیوں	-10.182
▁گیٹ	-10.1822
▁عیسائیوں	-10.1822
▁صوبہ	-10.1823
ڈم	-10.1823
▁طلب	-10.1823
▁گوشت	-10.1824
▁فلپائن	-10.1825
▁2016	-10.1825
▁اہتمام	-10.1828
▁خلیج	-10.1833
▁خزا	-10.1855
تقریبا	-10.1857
نیس	-10.1859
▁اسٹریٹج	-10.1864
▁سیاح	-10.1879
ثر	-10.1881
▁انکشاف	-10.1885
▁جھنڈ	-10.1885
▁سفارش	-10.1886
▁لائف	-10.1886
vi	-10.1901
96	-10.1903
اط	-10.1909
یات	-10.1913
▁جانشین	-10.1924
▁بنانا	-10.1929
رم	-10.1939
▁مول	-10.1941
▁گریجویٹ	-10.1943
▁قسطنط	-10.1947
▁ریستوراں	-10.1947
▁جانبدار	-10.1947
▁مدرس	-10.1948
▁1941	-10.1949
▁مو	-10.1965
26	-10.1966
▁خلی	-10.1969
▁اشکنازی	-10.1971
وسیا	-10.1974
▁دب	-10.1975
▁طب	-10.1979
di	-10.1994
▁کنی	-10.1999
▁بیرون	-10.2
▁ویک	-10.2002
▁اوک	-10.2005
▁ڈیوائس	-10.201
▁پرفارمنس	-10.2012
▁فاکس	-10.2012
▁1995	-10.2013
▁گیلری	-10.2017
▁پلان	-10.2026
▁تھرم	-10.2036
▁ہوگی	-10.2038
بھ	-10.205
▁برج	-10.206
▁BYU	-10.2074
▁طبیعی	-10.2074
▁1949	-10.2076
▁اولاد	-10.2076
▁رنگین	-10.2083
▁مائیکل	-10.2085
▁ازم	-10.2085
▁بور	-10.209
▁جذباتی	-10.2091
خالی	-10.2091
▁پینٹنگ	-10.2092
45	-10.2097
پول	-10.21
پورٹ	-10.2101
▁پیس	-10.2113
ed	-10.2123
▁فرش	-10.2134
▁اشتہار	-10.2137
▁بزنس	-10.2137
▁اطلاق	-10.2139
یٹس	-10.2143
▁پھیلا	-10.215
▁ماں	-10.2153
69	-10.2169
▁آسانی	-10.2182
▁فلسف	-10.2186
pa	-10.2187
▁+	-10.2187
41	-10.2192
90	-10.2197
▁دیوتا	-10.22
▁لیبارٹری	-10.2201
سیپ	-10.2204
▁منسٹر	-10.2208
▁یعنی	-10.2219
▁360	-10.2237
▁بلاک	-10.2253
▁جیفر	-10.2258
▁باب	-10.226
66	-10.2261
▁کنفیڈریشن	-10.2266
▁ٹھنڈ	-10.2266
▁اینگلو	-10.2266
یوس	-10.2266
▁میزائل	-10.2266
▁سماعت	-10.2266
▁سوانح	-10.2267
▁ایجنٹ	-10.2269
▁ابھی	-10.227
83	-10.2271
▁الکا	-10.2274
▁سانٹا	-10.2275
▁مینوفیکچر	-10.229
21	-10.229
▁(1	-10.23
▁گروہ	-10.2311
▁نسب	-10.2317
▁ٹکڑے	-10.233
▁مواقع	-10.2331
▁سوازی	-10.2331
▁چیئرمین	-10.2331
▁1974	-10.2333
▁1987	-10.2333
وکس	-10.234
▁میس	-10.2344
ci	-10.2347
▁داخلہ	-10.2362
▁پابند	-10.2365
میر	-10.2366
▁بیڑے	-10.2369
35	-10.237
▁کھلا	-10.2375
▁الیکٹرانک	-10.2383
▁رکھ	-10.2385
▁گان	-10.2391
J	-10.2395
▁بتایا	-10.2396
▁ٹوٹ	-10.2402
27	-10.2408
▁بہ	-10.2408
▁لوہ	-10.241
▁ٹرسٹ	-10.2411
77	-10.2415
▁چھٹ	-10.2422
سٹین	-10.243
12	-10.2434
▁شیر	-10.2443
▁بائیو	-10.2449
24	-10.2449
▁احکامات	-10.2462
▁تھوڑ	-10.2462
▁انٹیلی	-10.2462
▁1996	-10.2464
▁جرم	-10.2467
▁جمہوریت	-10.2471
▁اتنا	-10.2478
▁اقلیت	-10.2482
▁کوانٹ	-10.2488
800	-10.2492
▁پرو	-10.2499
نیٹ	-10.2502
▁زمر	-10.2502
نصب	-10.2516
▁ماد	-10.2526
▁ترغیب	-10.2528
▁رقص	-10.2528
▁میوزیک	-10.2529
▁اسٹاپ	-10.253
▁1969	-10.253
▁کسانوں	-10.2534
▁ٹکڑ	-10.2543
▁جائے۔	-10.2546
▁پینل	-10.2546
▁خرابی	-10.2559
▁جلا	-10.2587
87	-10.2589
آئی	-10.259
▁گھڑی	-10.259
▁آرکسٹرا	-10.2595
▁پروشیا	-10.2595
▁تقریباً	-10.2596
▁آئن	-10.2598
16	-10.2602
▁باڈی	-10.2604
▁لانگ	-10.2612
▁فلیٹ	-10.2627
47	-10.2633
▁برآمد	-10.2644
▁صارف	-10.2653
▁فال	-10.266
▁رضاکار	-10.2662
▁عالمگیر	-10.2662
▁موصول	-10.2662
▁کنندہ	-10.2662
▁جامع	-10.2663
▁اڈوں	-10.2663
▁سوشلسٹ	-10.2666
ولی	-10.2667
▁گیمز	-10.2674
▁سوئ	-10.2683
▁تقریبات	-10.2684
▁ملٹی	-10.269
▁چارٹ	-10.2691
▁$	-10.2692
▁گال	-10.2695
کرافٹ	-10.2698
▁کارڈ	-10.2698
▁گور	-10.2711
▁ایکڑ	-10.2714
▁باغی	-10.2715
▁توڑ	-10.2716
تنوع	-10.2726
▁آدمی	-10.273
▁توثیق	-10.273
▁محرک	-10.273
▁ڈاؤن	-10.273
▁فلکیات	-10.2733
▁ابن	-10.2735
مت	-10.2745
▁خان	-10.2747
▁قربانی	-10.2755
امی	-10.2761
to	-10.2762
▁کولمبی	-10.2766
▁سہ	-10.2769
▁نیلے	-10.2772
ul	-10.2772
ریج	-10.2781
ظہ	-10.2783
▁مع	-10.279
▁سڑکوں	-10.2792
▁بیکٹیریل	-10.2798
▁اسکرین	-10.2798
▁اضلاع	-10.2798
▁1992	-10.28
▁کوریائی	-10.2808
ثا	-10.285
ائیڈ	-10.2856
▁غذائی	-10.2858
ینڈ	-10.2863
▁سیار	-10.2864
▁ہو۔	-10.2866
▁محقق	-10.2866
میانمار	-10.2866
▁تھلگ	-10.2866
▁اعتراض	-10.2866
▁نایاب	-10.2866
▁سہول	-10.2867
▁1993	-10.2868
مکینیکل	-10.2868
▁جشن	-10.2868
▁پہاڑ	-10.2873
▁نگار	-10.2877
▁ہن	-10.2878
▁لگا	-10.288
▁افسان	-10.2889
▁پک	-10.2892
باما	-10.2894
▁قدر	-10.2917
مار	-10.2919
▁حکومتوں	-10.2933
é	-10.2935
▁فیڈریشن	-10.2935
▁سیکولر	-10.2935
▁اسٹاک	-10.2936
▁1977	-10.2937
ناظر	-10.2938
▁لیمپ	-10.2939
▁جوڑنے	-10.2943
▁فرانسس	-10.2954
یاتی	-10.2958
اخ	-10.2967
▁ہیلی	-10.297
▁سور	-10.2977
▁دوڑ	-10.2981
شتر	-10.2987
▁پڑا۔	-10.2996
وچ	-10.3003
بری	-10.3004
▁نوعمر	-10.3004
▁انڈیکس	-10.3005
74	-10.3011
ورڈ	-10.3013
▁ریور	-10.3014
▁300	-10.3023
▁پورٹو	-10.3037
بھار	-10.3042
76	-10.3043
▁ہوگا۔	-10.3044
▁1000	-10.3047
▁بمبار	-10.3049
58	-10.3049
▁ضروریات	-10.3049
▁چوتھا	-10.3049
▁بیٹری	-10.305
ہال	-10.3052
01	-10.3053
نین	-10.3054
▁اسٹورز	-10.3063
▁بناتی	-10.3065
▁خوبصورت	-10.3074
▁غریب	-10.3074
▁سالگرہ	-10.3075
▁اسمتھ	-10.3075
▁فرض	-10.3076
▁موڑ	-10.3076
▁1985	-10.3077
▁1948	-10.3077
چم	-10.3083
▁شاعری	-10.3094
آر	-10.3095
کنز	-10.3108
▁الیکٹرو	-10.311
▁ریاستیں	-10.3112
▁سزائ	-10.312
▁اہ	-10.3121
▁اسٹیل	-10.3121
واں	-10.3124
14	-10.3134
▁75	-10.3138
▁مالیکیول	-10.3145
▁اسٹوریج	-10.3145
▁بہاؤ	-10.3147
▁1976	-10.3147
▁ملازمین	-10.315
▁تھیم	-10.316
▁بجے	-10.3163
ng	-10.3165
▁پہنچے	-10.3165
توقع	-10.3176
71	-10.3177
▁اسپیس	-10.3178
ce	-10.3184
▁مڈ	-10.3185
بس	-10.3186
▁عراق	-10.319
▁150	-10.3202
ہل	-10.3205
▁دسو	-10.321
گریٹر	-10.3212
▁ایندھن	-10.3216
▁The	-10.3216
▁حیر	-10.3218
▁لڑک	-10.3225
▁پیپل	-10.3231
▁زخمی	-10.3243
▁منی	-10.3252
▁لیو	-10.3254
ران	-10.3259
▁اسکالر	-10.326
29	-10.3267
▁لکھت	-10.327
▁مارنے	-10.3276
va	-10.3279
am	-10.3283
▁سوشل	-10.3283
▁اعتراف	-10.3287
▁صوبوں	-10.3287
▁مریض	-10.3287
▁ڈومینیکن	-10.3287
▁چیپل	-10.3288
▁ایٹم	-10.3289
▁پنجاب	-10.3289
مونٹ	-10.3289
▁(16	-10.3299
▁مارٹن	-10.3301
▁تال	-10.3313
ian	-10.3313
▁ڈائ	-10.332
▁بیج	-10.3331
▁خوش	-10.3335
شو	-10.334
▁اسکائی	-10.336
▁باسک	-10.3371
ورس	-10.3374
57	-10.339
قاعدہ	-10.3392
11	-10.3397
▁a	-10.3403
▁لڑن	-10.3406
▁اولمپکس	-10.3411
▁اشتراک	-10.3432
▁برطرف	-10.3432
▁ضبط	-10.3432
▁متوازی	-10.3432
▁اسپورٹس	-10.3432
▁پروٹوکول	-10.3432
2)	-10.3432
▁تلفظ	-10.3432
▁اسکرپٹ	-10.3432
▁پس	-10.3432
▁رابطہ	-10.3437
▁تاجروں	-10.3441
بین	-10.3444
▁ایڈیٹر	-10.3445
▁ایر	-10.3447
▁اونچا	-10.345
جمنٹ	-10.3452
یگ	-10.3452
88	-10.3462
▁چا	-10.3466
▁اسکیم	-10.3468
72	-10.3478
▁آرام	-10.3479
▁افسانو	-10.3481
ka	-10.3487
اؤن	-10.349
حسین	-10.3502
▁زبردست	-10.3505
▁مدمقابل	-10.3505
▁ڈھانچہ	-10.3505
▁صاف	-10.3505
▁ہنگام	-10.3505
▁مک	-10.3507
▁باؤل	-10.351
▁میڈ	-10.3514
no	-10.3516
▁120	-10.3516
▁پاک	-10.3516
جین	-10.3518
میبیا	-10.3524
▁باپ	-10.353
▁سومری	-10.3533
▁مونٹان	-10.3536
▁میٹ	-10.354
63	-10.3542
▁پرجاتی	-10.3548
▁دہائیوں	-10.3553
▁سرپرست	-10.3555
▁انجینئر	-10.3564
لامتی	-10.3573
mi	-10.3573
▁نقصانات	-10.3577
▁تناؤ	-10.3578
▁ڈھک	-10.3578
▁روزگار	-10.3579
▁1971	-10.358
▁چاندی	-10.3581
▁دف	-10.3581
co	-10.3594
▁قومیت	-10.3604
▁کمپیوٹرز	-10.3607
▁تبدیلیاں	-10.3607
▁بائ	-10.3613
▁مسافر	-10.3623
5،000	-10.3633
K	-10.3637
زن	-10.3639
▁منایا	-10.3652
▁تکمیل	-10.3653
▁اینجل	-10.3654
▁سائیڈ	-10.3656
▁ایسٹونین	-10.3656
در	-10.3657
▁پریشانی	-10.366
▁خام	-10.3666
28	-10.3667
فو	-10.367
نگٹن	-10.369
ایم	-10.369
▁سیکسن	-10.3697
▁(4	-10.3698
ڈیل	-10.37
▁£	-10.3712
ولین	-10.3714
▁پادریوں	-10.3723
ذہ	-10.3723
▁انتقال	-10.3727
▁نقش	-10.3727
▁پیغام	-10.3727
▁قطب	-10.3727
▁جائیں	-10.3727
89	-10.3727
▁ڈور	-10.3728
▁یونیکو	-10.3728
نگھم	-10.373
تائیوان	-10.3733
▁پہلوان	-10.3733
ائزڈ	-10.3737
▁بنتا	-10.3737
ولر	-10.375
▁ایلن	-10.3756
▁ارب	-10.376
▁جنگجو	-10.3764
▁شاعر	-10.3781
▁ریکو	-10.3784
▁لائی	-10.3785
▁پید	-10.3787
▁رگ	-10.3788
▁دفاتر	-10.3802
▁ہنوور	-10.3802
▁تاخیر	-10.3802
▁ناک	-10.3807
▁سلطان	-10.3807
▁گریگوری	-10.3808
بوط	-10.3808
▁نامزدگی	-10.3808
▁فرسٹ	-10.3809
یکا	-10.3817
ریڈ	-10.3818
▁نوبل	-10.3819
▁مضبوطی	-10.3819
▁ریلی	-10.3821
▁نازی	-10.3822
▁بازو	-10.3824
▁جنگلات	-10.3828
▁پرت	-10.3836
شائر	-10.3838
Z	-10.3838
ذکر	-10.3856
▁جیانگ	-10.3859
اپ	-10.3871
▁نقا	-10.3873
▁متضاد	-10.3878
▁اشنکٹ	-10.3878
▁ویکیوم	-10.3878
▁اقدار	-10.3878
▁ورث	-10.3878
▁سچائی	-10.3879
▁خوف	-10.388
▁مائکرو	-10.388
▁تفصیلات	-10.389
▁رول	-10.3901
▁ٹام	-10.3906
▁موڈ	-10.3912
پین	-10.393
▁قید	-10.3934
▁الہی	-10.3936
ورکس	-10.3936
بکس	-10.3936
لیو	-10.3941
62	-10.3942
رات	-10.3943
▁ایتھلیٹک	-10.3954
▁بدنام	-10.3954
▁مکوڑ	-10.3954
▁اسٹائل	-10.3955
▁1944	-10.3956
▁(5	-10.3959
فور	-10.3961
ٹوری	-10.3962
رٹ	-10.3966
▁شد	-10.3968
▁ماؤنٹین	-10.3968
▁جونیئر	-10.397
sa	-10.3971
▁سوار	-10.3974
▁منزل	-10.3983
ent	-10.3983
▁کامکاسٹ	-10.3988
راد	-10.3994
▁ثان	-10.3997
گوٹ	-10.4003
▁جوڑے	-10.4006
▁معمول	-10.4012
کاری	-10.4015
▁Ma	-10.4018
▁الی	-10.4029
▁آلودگی	-10.4031
▁دھمکی	-10.4031
▁برتن	-10.4031
▁وعدہ	-10.4031
ایوسینا	-10.4031
▁پنکھ	-10.4033
▁رواج	-10.4033
▁مذم	-10.4035
▁X	-10.4044
▁مرکبات	-10.4065
▁کلو	-10.4088
▁ایپ	-10.4091
▁پیسہ	-10.4094
▁الیکٹران	-10.4094
▁گری	-10.4095
وسٹ	-10.4098
▁65	-10.41
▁توپ	-10.4105
▁بٹومین	-10.4109
▁فریق	-10.4109
▁بگ	-10.4109
▁طول	-10.411
▁ضمانت	-10.411
▁ہند	-10.411
▁ہوگئیں	-10.4112
▁بدعت	-10.4118
▁ساموا	-10.4121
ٹرز	-10.4126
▁بھاگ	-10.413
▁ٹھو	-10.4134
▁مجسمہ	-10.4151
▁سولو	-10.4155
▁سینا	-10.4158
▁ٹول	-10.4163
▁ٹائ	-10.4166
قدام	-10.4183
ho	-10.4184
▁مطلوب	-10.4187
▁مفروض	-10.4187
▁معطل	-10.4187
▁وغیرہ	-10.4187
▁اموات	-10.4187
▁راغب	-10.4187
▁کوچ	-10.4187
▁انگور	-10.4187
پلیکس	-10.4188
▁فیس	-10.4189
▁دوچار	-10.419
▁دائ	-10.4197
▁اتنی	-10.4197
اصر	-10.42
نسوب	-10.42
▁کنٹری	-10.4202
ینز	-10.4204
▁شا	-10.4205
سیس	-10.4216
▁اخبارات	-10.422
▁برون	-10.4225
▁پرستوں	-10.4228
po	-10.4235
▁گھران	-10.4245
ائٹس	-10.4248
▁400	-10.425
▁انجن	-10.4252
▁افعال	-10.4265
▁گراؤنڈ	-10.4265
▁یونائیٹڈ	-10.4265
▁جارح	-10.4265
▁اکٹھ	-10.4265
▁عمودی	-10.4266
▁1964	-10.4269
▁اپنانے	-10.4269
▁1917	-10.4269
▁نہاد	-10.4271
▁مثالی	-10.4271
man	-10.4278
▁شق	-10.428
نان	-10.4281
▁فلمیں	-10.4284
).	-10.4286
▁ٹائپ	-10.429
▁ہوگی۔	-10.4295
سلی	-10.4295
78	-10.4311
▁مونو	-10.4324
▁بیوی	-10.4331
▁فلور	-10.4332
▁سیمی	-10.4338
گریشن	-10.434
▁ریجن	-10.4344
ts	-10.4345
ː	-10.4345
▁ایڈجسٹ	-10.4345
▁میساچوسٹس	-10.4345
▁آئلینڈ	-10.4345
▁پہلوؤں	-10.4347
▁1972	-10.4347
▁نیپال	-10.435
▁1900	-10.4355
ریم	-10.4356
نٹس	-10.4367
▁انجیل	-10.437
کرات	-10.4376
▁سینٹی	-10.438
▁بیر	-10.438
▁گریز	-10.4382
ینو	-10.4388
▁سین	-10.4391
▁فوڈ	-10.4393
▁پروٹو	-10.4401
▁32	-10.4403
▁آرچ	-10.4409
▁تفصیل	-10.4412
▁فیڈ	-10.4413
▁متعد	-10.4418
سٹک	-10.4421
tu	-10.4424
▁دکان	-10.4425
آن	-10.4426
▁مرتب	-10.4426
رڈ	-10.4428
▁آئس	-10.4428
پیاں	-10.4435
فن	-10.4436
im	-10.4437
ٹیکل	-10.4437
▁غذائیت	-10.4437
سٹریٹ	-10.4442
▁پیری	-10.4443
▁کرسٹل	-10.4449
ویٹ	-10.4458
نویں	-10.4476
▁گولڈ	-10.448
▁بوس	-10.4481
mo	-10.4485
موبائل	-10.4505
▁کھپت	-10.4505
▁مذاہب	-10.4505
▁سکاٹ	-10.4505
▁پمپ	-10.4506
▁آئل	-10.4506
▁یکساں	-10.4506
▁میجر	-10.4508
▁1918	-10.4509
▁دمہ	-10.4515
97	-10.4519
▁بھرتی	-10.4522
▁مدار	-10.4528
05	-10.4531
▁خلیات	-10.4536
65	-10.455
▁یہودیت	-10.4559
رمو	-10.4562
یئس	-10.4569
▁سفارت	-10.4574
▁(20	-10.458
▁فرم	-10.4586
▁1961	-10.4587
▁انٹرٹینمنٹ	-10.4587
روی	-10.4588
▁ہاٹ	-10.4589
▁1978	-10.4589
▁میونسپلٹی	-10.4589
▁نیل	-10.4589
▁1967	-10.4589
ظاہر	-10.4595
23	-10.4599
▁ٹیک	-10.46
▁ڈیٹ	-10.4601
▁ذہن	-10.4604
▁حراستی	-10.4609
▁ایسٹر	-10.461
اکا	-10.461
▁نہر	-10.4615
▁ٹیسٹنگ	-10.4625
▁ایوی	-10.4625
پن	-10.463
ٹھ	-10.4642
▁موس	-10.4644
▁چھت	-10.4653
یسی	-10.4664
▁صلیبی	-10.4666
▁ٹرانز	-10.4667
▁اوسطاً	-10.4669
▁ایکسپلورر	-10.4669
▁ہاتھوں	-10.4674
▁عقیدہ	-10.4692
▁جمہوری	-10.4692
▁ہلاکت	-10.4697
▁لڑکی	-10.4699
راس	-10.4699
قین	-10.4702
زین	-10.4703
08	-10.4716
ge	-10.4723
▁(17	-10.4728
رگو	-10.4732
▁اداکاری	-10.4733
▁تھیوری	-10.4736
▁رکھی۔	-10.4748
▁جیو	-10.4748
▁آئر	-10.475
▁دستبردار	-10.4751
▁پارلیمانی	-10.4751
▁سینئر	-10.4752
▁1984	-10.4753
▁سوائ	-10.4753
▁معدنیات	-10.4755
▁نمونہ	-10.476
▁کرو	-10.4762
▁شیڈول	-10.4765
ٰ	-10.4774
لانے	-10.4785
مثال	-10.4791
ve	-10.4791
▁الزامات	-10.4792
▁ڈک	-10.4799
▁نکل	-10.4801
▁ٹیکنالوجیز	-10.4806
▁اخلاقی	-10.4822
▁تھری	-10.4823
▁ہٹان	-10.4823
▁عدالتی	-10.4832
▁رائن	-10.4834
▁ڈویلپمنٹ	-10.4835
▁ہوجائے	-10.4835
α	-10.4835
قطع	-10.4835
▁گہری	-10.4835
▁ٹرانسپورٹ	-10.4835
ٹیو	-10.4837
▁شکای	-10.4838
▁1973	-10.4838
لیم	-10.4839
▁چک	-10.4839
▁پہنچایا	-10.4852
▁الب	-10.4871
▁کارڈینلز	-10.4875
کوس	-10.488
ut	-10.4891
▁پریڈ	-10.4893
▁آپریٹ	-10.4905
▁کیبس	-10.4906
▁جانسن	-10.4911
▁قزاق	-10.4919
▁واقفیت	-10.492
▁آرتھر	-10.4923
me	-10.4932
▁گزرت	-10.4939
93	-10.4941
▁میموریل	-10.4943
▁ویو	-10.4944
ائب	-10.4957
▁ماری	-10.4968
▁بیسن	-10.4971
▁افسر	-10.4979
▁ڈا	-10.4987
▁میرین	-10.4995
▁اسپیڈ	-10.5004
▁بدتر	-10.5005
▁1966	-10.5006
▁کھلے	-10.5015
یئن	-10.502
▁مانچ	-10.502
قاد	-10.5021
▁بارہو	-10.5021
ھی	-10.5022
▁ٹیبل	-10.5023
▁دیکھت	-10.5025
ad	-10.5039
▁سرنگ	-10.5041
▁لینڈنگ	-10.5044
▁تائی	-10.5047
▁پہچان	-10.5048
32	-10.5052
نکس	-10.5053
▁البمز	-10.5064
▁چلائی	-10.507
▁ذہنی	-10.5073
▁کوریج	-10.5078
▁تدفین	-10.5089
▁مینیجر	-10.5089
▁برانڈ	-10.5089
▁سوراخ	-10.5089
▁سنڈ	-10.509
▁کشتی	-10.5093
▁تز	-10.5106
▁گارڈن	-10.5109
▁وینس	-10.5111
▁گھنٹ	-10.5115
▁گیری	-10.5118
▁جگہوں	-10.512
▁اسٹیج	-10.5131
فیفا	-10.5135
اوی	-10.5138
▁لائنز	-10.5167
ۃ	-10.5175
▁احترام	-10.5175
▁مباحث	-10.5175
▁مفاد	-10.5175
▁ٹرانسمیٹر	-10.5175
▁پائلٹ	-10.5175
لیب	-10.5177
▁1986	-10.5179
▁آکسائڈ	-10.5179
▁مماثلت	-10.518
▁رکنیت	-10.5181
ck	-10.5182
▁تعلیمات	-10.5185
▁تکلیف	-10.5188
▁گرامر	-10.5191
▁ایڈی	-10.5202
ؤ	-10.5211
اڈا	-10.5217
▁دعوت	-10.5217
بچپن	-10.5219
▁مذا	-10.5221
▁38	-10.5224
▁ینگ	-10.523
▁مالا	-10.5235
▁کاسٹ	-10.5247
بصری	-10.525
▁پریشان	-10.5254
احل	-10.526
▁عرض	-10.5262
▁ریٹائر	-10.5262
▁نکولس	-10.5262
▁جرسی	-10.5263
▁ریفرن	-10.5263
ینالاگ	-10.5263
ڈرو	-10.5263
▁حصول	-10.5264
▁کورس	-10.5264
▁روحانی	-10.5264
▁1914	-10.5264
▁1975	-10.5265
▁یوآن	-10.5267
▁ملحقہ	-10.5269
▁فرانسسکو	-10.527
▁شائ	-10.5271
▁پریمیر	-10.5275
توفی	-10.5278
▁علی	-10.5279
▁لیتے	-10.528
▁ہالی	-10.5289
وانا	-10.529
ولو	-10.529
▁واک	-10.5291
94	-10.5293
ویانا	-10.53
▁مجسم	-10.5302
▁سپ	-10.5306
▁گزر	-10.5307
▁روسیوں	-10.5311
▁لیٹر	-10.5314
▁اٹھ	-10.5315
ونک	-10.5315
1860	-10.5324
▁نشا	-10.5329
▁فنکشن	-10.5336
کوک	-10.534
▁نمائند	-10.5343
de	-10.5349
▁1982	-10.535
▁ارضیات	-10.535
▁محافظ	-10.535
▁ناقد	-10.535
▁غذا	-10.535
▁فیکلٹی	-10.535
▁بتائیں	-10.535
داشت	-10.535
▁اسٹریم	-10.535
▁ایتھن	-10.5352
▁1963	-10.5352
▁ریک	-10.5357
▁کیپ	-10.5368
38	-10.5376
▁بچت	-10.5377
الو	-10.5379
▁دیں۔	-10.5388
▁ثانیہ	-10.539
طف	-10.5405
▁78	-10.5409
▁بیلٹ	-10.5412
الکان	-10.5414
بار	-10.5425
مسٹر	-10.5428
▁ریفارم	-10.5438
▁BeiDou	-10.5438
▁صبح	-10.5438
▁میکسیکن	-10.5438
▁انٹرفیس	-10.5438
▁لنکا	-10.5438
▁آفیسر	-10.5439
▁1981	-10.5441
▁پروسیسنگ	-10.5442
▁انکوڈنگ	-10.5443
▁خبر	-10.5447
▁موز	-10.5451
ارک	-10.5451
▁44	-10.5452
▁تصادم	-10.5461
▁لمبا	-10.5461
▁ایڈم	-10.5463
▁دوا	-10.5467
▁موضوعات	-10.5475
he	-10.5485
▁اسکندر	-10.5494
▁ریپ	-10.5506
▁ناقص	-10.5528
▁حامل	-10.5528
▁خیراتی	-10.5528
▁تھر	-10.5528
▁سیاستدان	-10.5528
▁پتل	-10.5528
▁of	-10.5529
▁اوقیانوس	-10.5529
▁تھورنگیا	-10.554
▁اگ	-10.554
▁KU	-10.5552
ation	-10.5556
چارج	-10.5556
ومی	-10.5558
▁دھماکے	-10.5562
ٹیس	-10.5565
▁ریو	-10.5567
▁اناج	-10.5567
ورا	-10.5572
▁پیر	-10.5574
▁Y	-10.5575
do	-10.5576
84	-10.5577
▁ہارٹ	-10.5578
▁نوٹر	-10.5579
▁ویز	-10.5579
▁ٹیون	-10.5584
یروش	-10.5587
▁ڈیون	-10.56
▁حج	-10.5614
▁نارمن	-10.5617
▁موقف	-10.5618
▁لغت	-10.5618
▁خیز	-10.5618
راڈ	-10.5619
22	-10.5619
▁سنگ	-10.562
▁1958	-10.562
پری	-10.5621
بلی	-10.5626
▁مبصر	-10.563
ٹرک	-10.5637
▁آور	-10.5641
▁ٹار	-10.5662
▁لیپ	-10.5662
▁پوائنٹس	-10.5663
فین	-10.5671
▁دست	-10.5675
▁لوتھر	-10.5693
پوشی	-10.5694
▁ڈیلی	-10.5697
رالی	-10.5702
▁سنبھالا	-10.5704
▁روکا	-10.5704
افت	-10.5704
▁مطلق	-10.5709
▁سرزمین	-10.5709
▁ستار	-10.5709
▁خطرناک	-10.5709
▁ٹرافی	-10.571
▁صحافی	-10.571
▁کمشنر	-10.571
ine	-10.5714
▁جد	-10.5714
▁ونگ	-10.5715
▁فرقہ	-10.5716
▁ٹانگ	-10.5719
لیتا	-10.5724
عام	-10.5739
▁پڑھا	-10.5739
قان	-10.574
▁سون	-10.5751
▁سکے	-10.5755
▁ایجنسیوں	-10.5763
▁واٹ	-10.5765
▁چائلڈ	-10.58
▁چہر	-10.58
▁ارسطو	-10.5801
▁اسٹالن	-10.5801
▁کرنسی	-10.5801
▁1983	-10.5803
▁(15	-10.5803
▁1937	-10.5805
▁جیکسن	-10.5805
▁کریں۔	-10.5807
پولس	-10.5809
▁وسطیٰ	-10.5811
ڈیم	-10.5811
ہو	-10.5822
سیلی	-10.583
▁مقال	-10.5831
▁مارکس	-10.5833
ابی	-10.5839
▁فضائیہ	-10.5842
▁رہے۔	-10.5845
▁ٹریل	-10.5848
▁گھنٹہ	-10.5852
tra	-10.5864
▁فنڈز	-10.5869
▁قرضے	-10.5872
▁قبرصی	-10.5876
▁تاجر	-10.5884
▁چاند	-10.5889
▁اولڈ	-10.589
▁فلسطین	-10.5893
ν	-10.5893
▁رسومات	-10.5893
▁مفید	-10.5893
▁قرارداد	-10.5894
▁1953	-10.5896
▁سپورٹ	-10.5896
بیری	-10.5902
اکس	-10.5902
▁مہمان	-10.5911
▁کاشت	-10.5925
▁گڈ	-10.5931
▁بون	-10.5943
▁ویڈیوز	-10.5946
▁تبصر	-10.5947
▁لڑی	-10.5955
یعنی	-10.596
▁مسیحی	-10.5962
اصل	-10.5963
▁رجسٹر	-10.5977
▁اتار	-10.5978
▁خریدن	-10.5978
کالت	-10.5983
▁معاشروں	-10.5986
▁کنیکٹیکٹ	-10.5986
om	-10.5987
لپائن	-10.5989
▁چٹان	-10.599
▁فش	-10.5991
▁شخصیات	-10.5991
▁بھیجن	-10.5998
▁انع	-10.5999
▁سار	-10.6
▁موٹ	-10.6015
44	-10.6016
یکٹر	-10.6029
▁صوتیات	-10.606
یسس	-10.6062
▁اسکین	-10.6068
▁کروز	-10.6076
ائیں	-10.6076
▁فیری	-10.608
▁انڈرگریجویٹ	-10.6081
▁موافقت	-10.6081
▁نژاد	-10.6081
▁خواند	-10.6081
▁گہرائی	-10.6082
▁1968	-10.6084
▁ایرینا	-10.6085
▁سوم	-10.6089
ماپا	-10.609
▁عمری	-10.6094
▁معاون	-10.6096
▁رائ	-10.6098
آرکیٹیکچرل	-10.6099
▁موریس	-10.61
▁شور	-10.6104
▁نشستیں	-10.6109
▁گلیڈ	-10.6113
▁اہل	-10.6131
▁اوپ	-10.6134
▁کرسٹ	-10.6137
▁میڈر	-10.6138
▁جوڑ	-10.616
-10	-10.6165
▁ابھر	-10.6171
▁انتھروپولوجی	-10.6176
▁مملکت	-10.6176
▁نشوونما	-10.6176
▁1922	-10.6178
▁ٹیکنیک	-10.6179
▁(6	-10.619
عد	-10.6192
▁نوازا	-10.6193
▁بھیجے	-10.6194
▁وائرس	-10.6201
▁ریش	-10.621
اکی	-10.621
چین	-10.6232
▁سننے	-10.6235
▁کردی۔	-10.624
▁کتابیں	-10.6242
▁وائر	-10.6247
▁لوپ	-10.6248
▁قبر	-10.6254
▁رہی۔	-10.6257
دوار	-10.6258
▁چمک	-10.6258
▁طیارہ	-10.6259
یلی	-10.6259
کول	-10.6262
ers	-10.6263
▁ایجوکیشن	-10.6272
▁تشویش	-10.6272
▁مسابقت	-10.6272
▁ٹورنامنٹ	-10.6272
▁رومانٹک	-10.6272
▁ظلم	-10.6272
▁انگیز	-10.6273
▁راجر	-10.6273
06	-10.6273
▁1952	-10.6275
▁کنیکٹر	-10.6276
▁1880	-10.6278
دھوک	-10.6279
▁چوتھائی	-10.6282
▁اوس	-10.6301
منڈ	-10.6304
▁سینیٹر	-10.6305
▁مونیک	-10.6311
▁ٹون	-10.6316
▁ووٹر	-10.6323
▁رکھنا	-10.6325
▁طبقات	-10.633
وئی	-10.6333
700	-10.634
▁ریت	-10.6342
▁10،000	-10.6348
▁انڈو	-10.6354
خطوط	-10.6357
▁دروازے	-10.6358
▁مقدونی	-10.6366
▁حساس	-10.6367
▁پیلس	-10.6368
▁جرنل	-10.6369
▁افغانستان	-10.6369
یوئیفا	-10.6369
▁براڈوے	-10.6369
▁فعل	-10.637
tic	-10.6375
راگوئ	-10.6376
▁سیکنڈری	-10.6377
▁علمی	-10.6379
ناک	-10.6385
▁برادریوں	-10.6387
نصف	-10.6388
سیف	-10.6395
ir	-10.642
▁پہنت	-10.6424
روم	-10.6428
ly	-10.6451
da	-10.6455
▁شوز	-10.6456
▁راجستھان	-10.6467
▁صوبائی	-10.6467
▁سامورائی	-10.6467
▁کیپسیٹر	-10.6467
▁سنیما	-10.6468
▁کوارٹر	-10.6469
▁الفریڈ	-10.6469
▁بلند	-10.6469
▁1956	-10.6471
▁بیری	-10.6475
رنر	-10.6478
▁مخطوط	-10.6479
▁گرام	-10.648
1965	-10.6492
▁ایج	-10.6498
▁دا	-10.6511
▁والٹر	-10.6516
▁نکلا	-10.6516
▁فیکٹری	-10.6523
رٹش	-10.6524
▁سمر	-10.6528
▁حاضری	-10.6541
▁چپ	-10.6554
انٹ	-10.6554
▁سینک	-10.6561
ریل	-10.6565
▁تفہیم	-10.6566
▁محاصرے	-10.6566
▁اسسٹنٹ	-10.6567
▁ورجل	-10.6568
▁صلیب	-10.6569
▁1910	-10.6571
▁فارس	-10.6574
▁گیارہو	-10.6574
▁بد	-10.6582
پونٹ	-10.6585
▁امور	-10.6585
▁سفارتی	-10.6585
▁آسمان	-10.6586
▁ہینری	-10.6597
900	-10.6598
▁گلاس	-10.6603
ویلٹ	-10.6606
▁ایٹن	-10.6617
شار	-10.6632
▁نیورو	-10.6634
▁کیسل	-10.6634
▁سنت	-10.6637
عتی	-10.6641
▁والٹ	-10.6643
▁آنکھ	-10.6651
▁بٹن	-10.6651
▁ویلی	-10.6654
مارٹ	-10.6655
قب	-10.6662
▁الکحل	-10.6666
▁برصغیر	-10.6666
▁نیویگیشن	-10.6666
▁شعور	-10.6666
▁وفادار	-10.667
▁ہاربر	-10.667
▁1936	-10.667
موٹو	-10.6684
▁ٹیگ	-10.6692
ارٹ	-10.6697
▁سرپرستی	-10.6698
▁سیم	-10.6702
▁ناگ	-10.6706
ya	-10.6719
▁جانشینی	-10.6721
ot	-10.6725
کستان	-10.6732
گیٹ	-10.674
گری	-10.674
▁میونسپل	-10.6764
▁اسپتال	-10.6767
▁بپتسمہ	-10.6767
▁تنخواہ	-10.6767
▁قونصل	-10.6767
▁پیشرفت	-10.6767
▁براؤزر	-10.6767
پٹھوں	-10.6767
▁ڈسکس	-10.6768
▁برآ	-10.6769
▁گیند	-10.677
▁منطق	-10.6772
▁سیلاب	-10.6773
▁نیک	-10.6775
▁بروک	-10.6783
▁کرای	-10.6794
▁اتر	-10.6794
کیٹ	-10.6795
▁قار	-10.6796
▁آربر	-10.6796
▁کورسز	-10.6801
▁حسی	-10.6802
وٹا	-10.6809
▁الیکٹرانکس	-10.6809
▁تنگ	-10.6815
▁مانگ	-10.6824
▁گرے	-10.6824
▁ہیر	-10.6833
▁مہنگ	-10.6844
▁برڈ	-10.6847
▁میکس	-10.6852
رب	-10.6861
▁all	-10.6867
▁اقتصادی	-10.6869
▁1876	-10.6874
▁اندراج	-10.6875
▁پلیس	-10.6878
▁اینٹ	-10.6901
▁اثاثوں	-10.6902
les	-10.6913
وما	-10.6913
ou	-10.6917
▁گرانٹ	-10.6923
ac	-10.6924
▁وول	-10.6926
▁ایکشن	-10.6927
▁مہمات	-10.6936
وسس	-10.694
فیلڈ	-10.6948
▁دشمنی	-10.6962
▁سائبر	-10.6968
▁ایریزونا	-10.6972
▁ڈویلپر	-10.6972
▁ہدایات	-10.6972
▁میکانزم	-10.6972
▁چیمبر	-10.6972
▁مہایان	-10.6974
▁IV	-10.6975
▁دلیل	-10.6976
▁1943	-10.6976
▁ریف	-10.6978
▁پچ	-10.6979
▁رجسٹرڈ	-10.6982
▁Ch	-10.6984
▁the	-10.6985
▁اٹھان	-10.6991
▁گردش	-10.7
▁نار	-10.7001
▁خطاب	-10.7002
یانگ	-10.7005
اتوار	-10.7007
کھ	-10.7019
بون	-10.7034
▁گزرن	-10.7036
▁بچان	-10.7039
▁توازن	-10.7042
▁نیٹو	-10.7049
ناس	-10.7057
▁کروائی	-10.7059
▁یونیورسٹیاں	-10.7066
ولس	-10.7067
▁مشنری	-10.7069
شیا	-10.7074
▁شیک	-10.7076
XNUMX	-10.7077
▁کروموسوم	-10.7077
▁متفق	-10.7077
▁شبہ	-10.7077
▁گٹار	-10.7077
▁سجاوٹ	-10.7077
▁دیوالی	-10.7077
▁کھڑی	-10.7077
▁لائبیریا	-10.7077
نیویارک	-10.7077
▁دربار	-10.7077
▁دیکھیں	-10.7077
▁اسٹراسبرگ	-10.7078
▁گریمی	-10.7079
▁منہ	-10.7089
▁اوپن	-10.7099
▁ہڈ	-10.7104
▁1800	-10.7109
دیش	-10.7119
▁ساتھیوں	-10.712
ھو	-10.7141
▁کریم	-10.7142
▁مینوفیکچرر	-10.7143
▁ہینڈ	-10.7146
▁خرید	-10.715
▁کوڈنگ	-10.7153
07	-10.7155
▁پہنن	-10.7161
▁کھینچ	-10.7171
▁سیلول	-10.7181
Q	-10.7182
▁ڈزنی	-10.7182
▁ٹوک	-10.7184
▁نائ	-10.7185
▁1955	-10.7186
▁جیل	-10.7188
▁پکڑ	-10.7188
▁براڈ	-10.719
▁دھن	-10.719
▁1.5	-10.7191
▁پائیدار	-10.7192
ورین	-10.7193
▁آتش	-10.7196
ie	-10.7196
ba	-10.7198
▁مارے	-10.7201
▁مشی	-10.7202
▁آرگن	-10.7203
▁نیدرلینڈز	-10.7206
▁بلو	-10.7209
▁کھولی	-10.7212
▁ڈیس	-10.7219
ویر	-10.7224
وکو	-10.7226
▁آبادکاری	-10.7227
▁انڈین	-10.723
▁پیڈ	-10.7232
دگی	-10.7236
کھاتے	-10.7241
گرام	-10.7249
ns	-10.726
▁لیڈر	-10.7262
▁تھائی	-10.7269
بیٹ	-10.7274
▁صحا	-10.7287
▁مخلوق	-10.7288
▁انڈونیشیا	-10.7288
▁قصب	-10.7288
▁پھینک	-10.7288
▁لبنان	-10.7288
▁نمٹن	-10.7288
▁تابع	-10.7288
▁تمغ	-10.7289
▁1931	-10.729
▁دھار	-10.729
بروکلین	-10.7294
▁جاز	-10.7325
▁لائٹنگ	-10.7335
▁میز	-10.7336
یئم	-10.7339
▁قائ	-10.7346
▁تخمین	-10.7348
ستان	-10.7349
▁تقوی	-10.7396
▁مغل	-10.7396
لتھ	-10.74
▁1946	-10.74
▁فضلہ	-10.7405
▁افزائ	-10.7408
▁کنڈکٹر	-10.7426
جولین	-10.7427
▁رقبہ	-10.7429
▁حلق	-10.7431
▁اچھا	-10.7441
▁دکھات	-10.7445
▁ریورس	-10.7454
کوٹ	-10.7462
یکم	-10.7465
▁چڑھ	-10.7465
▁مونٹینی	-10.7467
▁کشش	-10.7473
▁سائ	-10.7474
▁کالجوں	-10.7479
▁معاملہ	-10.7481
▁مینڈ	-10.7482
▁ویکسین	-10.7504
▁فائبر	-10.7504
á	-10.7504
▁ڈپٹی	-10.7504
▁گھومن	-10.7505
▁مجھ	-10.7505
▁مادی	-10.7505
▁نادر	-10.7505
▁لڑا	-10.7505
▁اہلیہ	-10.7506
▁1957	-10.7507
▁1912	-10.7508
▁1954	-10.7508
▁1870	-10.7511
▁سنٹرل	-10.7513
▁کالم	-10.7513
1934	-10.7514
▁رہنمائی	-10.7524
▁سہر	-10.7524
+	-10.7528
▁نیشن	-10.7529
▁کینسر	-10.7534
▁ٹریننگ	-10.7539
ٹکس	-10.7542
▁پگھلن	-10.7551
▁انگل	-10.7559
▁ریگولیٹر	-10.7569
qu	-10.7572
▁تپ	-10.7574
au	-10.759
▁ثانی	-10.7597
1840	-10.7604
▁پڑھ	-10.761
▁راکٹ	-10.7613
▁عبرانی	-10.7614
▁سکھایا	-10.7614
والنسین	-10.7614
▁قبرستان	-10.7615
▁علوم	-10.7615
▁1938	-10.7617
▁چن	-10.7623
▁گلو	-10.7624
▁نکالن	-10.7624
▁ترکیب	-10.7624
▁وید	-10.7627
دال	-10.7631
▁سائنسز	-10.7633
▁ٹرائ	-10.7636
نوٹ	-10.7637
▁خاصیت	-10.7658
▁حص	-10.7663
hi	-10.7676
روجن	-10.7681
▁کوئین	-10.7696
▁ہوں۔	-10.7701
ینس	-10.7714
غرب	-10.7721
▁افرا	-10.7721
▁ماریا	-10.7723
▁شیٹ	-10.7723
▁خروش	-10.7725
▁1861	-10.7725
▁دشواری	-10.7725
▁اسپیکر	-10.7726
▁مرکری	-10.7726
▁چربی	-10.7726
▁ناظرین	-10.7727
▁1962	-10.7728
▁1942	-10.7729
▁فرار	-10.7741
▁ٹرن	-10.7745
ھا	-10.7745
▁فائنلسٹ	-10.7747
▁موم	-10.775
▁ایری	-10.7754
▁(10	-10.7769
▁Pa	-10.7772
▁ٹیپ	-10.7773
▁فلائٹ	-10.7773
▁جوڑا	-10.7774
▁لینا	-10.7776
▁لاما	-10.7784
لوم	-10.7791
▁بائی	-10.7805
ber	-10.781
▁1،	-10.7812
em	-10.7823
▁اشارے	-10.7831
▁زلزلہ	-10.7833
نیچر	-10.7835
▁وزراء	-10.7838
▁ہڑتال	-10.7838
▁تعامل	-10.7838
▁انگوٹی	-10.7838
▁اہلکار	-10.7838
▁نیند	-10.7838
▁کردیئے	-10.7839
▁بیچ	-10.7845
▁کنکشن	-10.7845
▁مائع	-10.7847
▁ٹیلر	-10.7855
▁ہیری	-10.7859
▁پرنٹنگ	-10.7869
▁ڈوب	-10.787
▁کنٹرولر	-10.7871
▁ریسل	-10.7878
نفا	-10.7885
Y	-10.7892
pr	-10.79
خاص	-10.7901
سیٹ	-10.7903
یڈس	-10.7914
جایا	-10.7916
▁پہنچا۔	-10.7933
▁بھیج	-10.7934
1830	-10.7936
ke	-10.7938
▁آئے۔	-10.7942
▁زیڈ	-10.7949
500	-10.7949
▁ڈھال	-10.7951
▁سپلائی	-10.7951
▁اسٹیفن	-10.7951
▁رومانوی	-10.7951
▁چودہویں	-10.7952
▁درکار	-10.7953
▁بادل	-10.7953
▁ٹرانزسٹر	-10.7954
▁ریویو	-10.7955
▁1919	-10.7955
▁کررہ	-10.7956
▁1959	-10.7957
▁گھاس	-10.7958
▁گریجوی	-10.796
پنگ	-10.7962
▁سونگ	-10.7962
▁آرٹیکل	-10.7962
▁اعصابی	-10.7967
شل	-10.7969
گوار	-10.7981
31	-10.7984
وٹی	-10.7985
▁مڈل	-10.7985
▁صنعتوں	-10.7991
▁مچھلی	-10.7992
▁ایٹمی	-10.7995
▁ابو	-10.8004
مپ	-10.8014
1929	-10.8027
4،000	-10.8036
▁پہنچی	-10.8038
▁لائنیں	-10.804
▁بیٹھ	-10.8048
▁ایش	-10.8051
1)	-10.8052
▁چھاپ	-10.8057
▁پندرہو	-10.8061
کور	-10.8063
کیوبزم	-10.8068
▁1913	-10.807
▁کلارک	-10.807
▁سوئچ	-10.8071
▁Al	-10.8073
▁دق	-10.8075
▁ہڈس	-10.808
▁سنہر	-10.8082
▁Sa	-10.8087
▁فران	-10.809
09	-10.8093
سبرگ	-10.8098
03	-10.81
ریچ	-10.8111
▁میو	-10.812
-14	-10.8134
▁ٹاورز	-10.8142
▁ہاکی	-10.8145
▁کھل	-10.8149
▁گورن	-10.8154
▁گھوڑے	-10.817
▁ڈری	-10.817
che	-10.8175
▁ستم	-10.8182
▁ہاس	-10.8182
ī	-10.8183
ɪ	-10.8183
▁اعلامی	-10.8183
▁تصفیہ	-10.8183
▁آرائش	-10.8183
حرف	-10.8183
▁دکھائی	-10.8184
▁کیریبین	-10.8184
▁مسود	-10.8185
▁1947	-10.8186
▁لاکھ	-10.8186
▁کھولن	-10.8188
ag	-10.8189
▁کیوبا	-10.819
▁ٹرام	-10.8191
▁ٹٹو	-10.8192
▁La	-10.8195
▁رسل	-10.8196
▁چکر	-10.8206
▁نشانات	-10.8216
▁ایون	-10.8218
ارت	-10.8224
▁سنی	-10.8229
ویئر	-10.8244
0,000	-10.8259
▁(12	-10.8261
▁نیدرلینڈ	-10.8273
شیم	-10.8282
▁ڈوم	-10.8298
▁استقبال	-10.83
▁ماڈیول	-10.83
▁نامعلوم	-10.83
▁نباتات	-10.83
▁گنجائش	-10.83
▁لیفٹینن	-10.83
▁فساد	-10.83
▁ڈنمارک	-10.83
▁دکھائے	-10.8301
▁وہیل	-10.8303
▁1890	-10.8306
▁1925	-10.8306
ورباچ	-10.831
خیر	-10.8312
▁اخلاقیات	-10.8318
▁لہروں	-10.832
▁1500	-10.8325
▁تم	-10.8331
شان	-10.8333
▁منچو	-10.834
▁لوٹ	-10.8342
▁(11	-10.8356
▁عقیدت	-10.8364
ویچ	-10.8369
▁بنا۔	-10.8376
▁لیڈی	-10.8379
نون	-10.838
bi	-10.8381
▁ترقیات	-10.8387
یئنز	-10.8399
پوزیشن	-10.8405
▁زر	-10.8405
▁ملازم	-10.8407
▁متغیر	-10.8408
ندگان	-10.8416
▁مستثنی	-10.8419
▁بوناپارٹ	-10.8419
▁مرطوب	-10.8419
▁ممنوع	-10.8419
▁گہرے	-10.8419
▁انٹرویو	-10.8419
▁ایڈمرل	-10.8419
▁مزاج	-10.8419
▁ناممکن	-10.8419
▁محور	-10.842
▁اینگلیکن	-10.842
▁آرگنائزیشن	-10.842
▁کینٹن	-10.8428
▁اسٹیو	-10.8436
قیمتوں	-10.8445
ڈور	-10.8451
نبرگ	-10.8464
▁ہمار	-10.8469
7،000	-10.847
▁بلاکس	-10.847
▁جونز	-10.8484
باکو	-10.8486
100	-10.8488
▁De	-10.8495
▁چیزیں	-10.8497
▁چینلز	-10.8501
3،000	-10.8525
▁وفاداری	-10.8535
▁ناراض	-10.8538
▁دھکیل	-10.854
▁وابستگی	-10.854
λ	-10.854
▁دانشور	-10.854
▁کمپیکٹ	-10.854
▁مایوس	-10.854
▁بنگال	-10.854
▁حیات	-10.8541
▁ملیشیا	-10.8541
▁موجد	-10.8542
▁بھائیوں	-10.8545
▁سربیا	-10.8547
بشمول	-10.8549
▁کاٹن	-10.8552
ang	-10.8554
▁منصب	-10.8561
▁ستنداریوں	-10.8563
بعد	-10.8567
▁ولیمز	-10.8569
▁انج	-10.8574
▁عقل	-10.8579
سکو	-10.8584
5)	-10.8588
بورن	-10.8592
▁سکھ	-10.8614
▁کمیون	-10.8619
▁آرائی	-10.8621
نیو	-10.8622
باد	-10.8635
gi	-10.8639
▁ڈیسک	-10.8643
▁سیکس	-10.8645
کھلی	-10.8657
▁افادیت	-10.8662
▁ایتھوپیا	-10.8662
▁فرنچائز	-10.8662
▁میکینٹوش	-10.8662
gu	-10.8662
▁قطر	-10.8662
▁سویڈن	-10.8662
▁جملے	-10.8662
▁تولید	-10.8662
▁پکچر	-10.8663
سٹرکچر	-10.8664
▁1911	-10.8665
▁کیمسٹری	-10.8665
▁نالی	-10.8669
▁سنگین	-10.8674
▁فونٹ	-10.8678
▁باغ	-10.8683
▁بینر	-10.8685
▁کیلون	-10.8687
▁چاہ	-10.869
▁فرینکل	-10.8697
▁فیل	-10.8706
ونیا	-10.8709
▁Ro	-10.871
-12	-10.8722
▁نمائندے	-10.8723
▁ایبل	-10.873
▁چیٹ	-10.8732
▁ایرو	-10.8738
▁شماریات	-10.8741
▁ارل	-10.8747
▁ہاؤسز	-10.8759
▁قبائلی	-10.8762
▁شہزاد	-10.8765
▁مختص	-10.8772
سپر	-10.8776
ینیکل	-10.8777
▁الح	-10.8779
▁مردہ	-10.8782
ASCII	-10.8785
▁آکسیجن	-10.8785
▁روزمرہ	-10.8786
▁پلاسٹک	-10.8786
▁شوہر	-10.8786
▁نامیبیا	-10.8786
▁کیپٹن	-10.879
▁اینلیڈ	-10.8791
▁فرمان	-10.8793
▁شیو	-10.8795
▁(8	-10.8796
▁انفارمیشن	-10.88
▁اسٹڈ	-10.8804
ہٹلر	-10.8805
قر	-10.8806
AC	-10.8807
مارک	-10.8817
▁اٹھات	-10.8817
▁Re	-10.8818
▁برآمدات	-10.882
▁پلانک	-10.8836
ایل	-10.8836
▁ڈاٹ	-10.8839
▁جیم	-10.8843
▁انڈر	-10.8847
▁فائز	-10.8848
جنگ	-10.885
▁ماسکو	-10.8853
▁تیر	-10.8854
▁آجر	-10.8858
▁عقلی	-10.8869
pe	-10.8873
ru	-10.8886
▁180	-10.8888
▁کوئل	-10.8892
ٹروپ	-10.8893
▁رائٹس	-10.8898
جہتی	-10.8901
▁قیمتی	-10.8903
▁انتباہ	-10.891
▁مثلث	-10.891
▁محاذ	-10.891
▁ڈپارٹمنٹ	-10.891
▁ساختی	-10.8911
▁چوری	-10.8914
▁1927	-10.8914
▁تنہا	-10.8915
▁فوسل	-10.8916
▁پائپ	-10.8927
میک	-10.893
▁کانسی	-10.8933
ant	-10.8935
▁گز	-10.894
▁میٹنگ	-10.894
▁قوس	-10.8944
سپین	-10.8949
ظ	-10.8952
ورو	-10.8961
خود	-10.8965
▁نمائندہ	-10.8979
▁ڈیجی	-10.8985
▁250	-10.9
▁کتا	-10.9006
con	-10.9018
▁کمپیوٹ	-10.9021
▁تعا	-10.9032
sh	-10.9034
ι	-10.9037
▁ریزولوشن	-10.9037
▁بریگیڈ	-10.9037
▁پوچھ	-10.9037
▁پارٹنر	-10.9037
▁ونڈسر	-10.9037
▁بچایا	-10.9037
▁داغ	-10.9038
▁پرسکون	-10.9038
▁1909	-10.9039
▁1924	-10.9041
▁گنتی	-10.9043
ورز	-10.9044
کوف	-10.9051
▁براڈکاسٹ	-10.9064
اڑ	-10.9064
▁لسانیات	-10.9064
صال	-10.9066
امین	-10.9066
▁سوالات	-10.9067
یرو	-10.9068
▁VII	-10.907
▁لگات	-10.9082
▁تنقیدی	-10.9084
کلاسیکل	-10.9086
-3	-10.9096
▁سباق	-10.9101
▁لکیری	-10.9102
▁کمائی	-10.9115
سرو	-10.9131
-15	-10.9137
▁لائٹس	-10.9141
▁ووٹنگ	-10.9141
ver	-10.9151
▁استثنا	-10.9161
▁بلندی	-10.9163
▁کنفیڈریٹ	-10.9165
▁اعمال	-10.9165
▁وائلڈ	-10.9165
▁اڑنے	-10.9166
▁ریئل	-10.9167
▁1933	-10.917
▁1853	-10.9171
نگو	-10.9172
▁میکانک	-10.9173
▁بھارت	-10.9175
▁گیر	-10.9175
▁ڈاون	-10.9175
▁چارلز	-10.9176
▁مشیر	-10.9207
▁بلا	-10.9213
,000،	-10.9216
عزم	-10.9225
ell	-10.9248
اؤں	-10.928
▁جاسکت	-10.9291
▁لتھوانیا	-10.9291
▁سوٹ	-10.9294
▁بریک	-10.9294
فیمیکوم	-10.9295
▁انسائیکلوپیڈیا	-10.9295
▁نصاب	-10.9295
▁جملہ	-10.9295
▁سوڈان	-10.9295
▁بیلجیم	-10.9296
بال	-10.9296
▁گھیر	-10.9297
ولوجیکل	-10.93
ائڈس	-10.9302
▁200،000	-10.9315
▁اسٹین	-10.9319
-16	-10.9332
▁کپڑ	-10.9369
▁نوک	-10.9378
▁ٹیکنک	-10.9383
tor	-10.9386
hu	-10.9391
▁جمناسٹک	-10.9396
ڑے	-10.9408
▁کینیڈی	-10.9412
▁میلان	-10.942
وسط	-10.9424
▁مسجد	-10.9426
▁مشاورت	-10.9426
▁انصاف	-10.9426
▁ڈسٹنی	-10.9426
▁عہدوں	-10.9427
▁فیملی	-10.943
▁1951	-10.9431
▁1848	-10.9434
▁شاپنگ	-10.9435
دان	-10.9437
▁فورم	-10.9437
3)	-10.9438
▁گلوبل	-10.944
ach	-10.9443
ae	-10.9444
▁ویٹیک	-10.9446
▁تجاوز	-10.9448
داریوں	-10.945
▁کولمب	-10.9451
▁گلیشیئرز	-10.9454
▁کاؤنٹر	-10.9457
سامو	-10.946
▁عصر	-10.9467
▁لینگ	-10.947
que	-10.9478
▁مہا	-10.9488
سٹائن	-10.9489
2،000	-10.9494
▁ٹینک	-10.9502
ٹیج	-10.9504
▁لائے	-10.9505
▁ڈیو	-10.9511
▁مادر	-10.9516
بورو	-10.9518
▁600	-10.9523
▁گلیشیئر	-10.9533
لاطینی	-10.9536
پہلے	-10.9537
رکیڈین	-10.9543
▁منج	-10.9555
▁ثالث	-10.956
▁لیورپول	-10.956
▁ملائیشیا	-10.956
▁پنسلوانیا	-10.956
▁ایکسپریس	-10.956
▁ارجنٹائن	-10.956
▁ڈسپل	-10.956
▁شیع	-10.9564
▁لوس	-10.9565
▁ہیکٹر	-10.9567
▁ہاک	-10.9568
▁ٹچ	-10.9578
▁پرائم	-10.958
▁فورب	-10.9583
▁ہب	-10.9583
لینز	-10.9586
ڈرامہ	-10.9588
▁رینک	-10.9591
ڈڈ	-10.9593
بان	-10.9606
یکیشن	-10.9607
▁لفٹیں	-10.961
▁میسنک	-10.9632
▁میڈل	-10.9636
▁پٹی	-10.9656
▁ملا۔	-10.966
▁Ca	-10.9669
▁چڑ	-10.9683
ث	-10.9684
حقیقت	-10.9685
▁اونچ	-10.9691
▁افق	-10.9695
▁ناپسندید	-10.9695
▁خوراک	-10.9696
ہجوم	-10.9696
▁اٹھائے	-10.9696
▁رسال	-10.9696
▁1907	-10.9698
▁پرامن	-10.9699
▁سسلی	-10.9699
▁بتات	-10.9699
br	-10.97
▁1855	-10.9703
▁ٹیوب	-10.9708
▁پلاٹ	-10.9725
ڈیس	-10.9726
یئرز	-10.9731
mp	-10.9732
وٹس	-10.9746
▁روٹر	-10.9749
▁فلا	-10.9768
▁بانٹ	-10.9769
▁بیکر	-10.9773
▁اسٹیون	-10.9776
▁فکس	-10.9785
▁گین	-10.9798
▁کیمیکل	-10.9806
6،000	-10.9808
▁میگا	-10.9811
دادا	-10.9826
▁اطمینان	-10.9832
▁ایمسٹرڈیم	-10.9832
▁مراعات	-10.9832
▁محی	-10.9833
▁ہسٹری	-10.9835
▁کھڑکی	-10.9836
▁میٹل	-10.9837
▁1871	-10.9838
▁گرڈ	-10.9842
▁سولہو	-10.9845
▁ٹوٹن	-10.9847
نگر	-10.9848
▁ہولڈر	-10.9849
جارہ	-10.985
▁ترجم	-10.9851
▁لامحدود	-10.9851
▁آگیا	-10.9853
اٹا	-10.9853
▁ریفری	-10.9867
▁دھاتی	-10.988
▁پیٹرک	-10.9882
پوٹ	-10.9882
▁لنکن	-10.9899
▁راہ	-10.99
▁تنظیمیں	-10.9903
▁بلڈ	-10.991
▁کریمیا	-10.9915
wa	-10.9915
▁املا	-10.9924
▁لمب	-10.9936
▁گرفتاری	-10.9939
▁شرمن	-10.994
ٹور	-10.9942
▁جوش	-10.9943
▁ڈیوس	-10.9945
جیب	-10.9948
lu	-10.9952
▁سرور	-10.9955
▁موری	-10.9958
▁صفح	-10.9964
▁محروم	-10.9971
▁کیمبرج	-10.9971
▁سمفونی	-10.9971
▁اندوز	-10.9971
▁سبسڈی	-10.9971
▁آگاہ	-10.9972
▁لمح	-10.9972
▁اوزار	-10.9973
▁دراز	-10.9973
▁چاول	-10.9975
تاب	-10.9977
ab	-10.9977
▁سیکھ	-10.9978
▁PS	-10.9978
▁فہم	-10.9983
▁ارادے	-10.9994
▁وارنر	-10.9999
▁Co	-10.9999
▁ڈرم	-11.0013
▁شاہ	-11.0013
▁اورنج	-11.0015
so	-11.0016
▁پلین	-11.0036
▁سکری	-11.0037
ولیتھک	-11.0054
▁پہنے	-11.0054
▁ننگ	-11.0055
▁پبلشر	-11.0059
مکھی	-11.006
▁علام	-11.0072
ائع	-11.0074
▁سلیک	-11.0074
▁پروسیسر	-11.0077
▁گرافک	-11.0084
▁پوت	-11.0092
▁ڈینس	-11.0092
▁خل	-11.0093
خراج	-11.011
▁کاؤنٹ	-11.011
▁ماؤ	-11.0111
▁خوشحال	-11.0112
▁پیچیدگی	-11.0112
▁شعل	-11.0112
▁اسکواڈرن	-11.0112
▁کھال	-11.0113
▁ورجن	-11.0117
▁واچ	-11.0119
▁شریف	-11.0123
▁امپ	-11.0126
▁مرض	-11.0128
▁برائن	-11.0128
▁دھڑ	-11.0139
▁کیمیکلز	-11.014
▁اسکی	-11.0146
▁میٹھ	-11.0147
حکومت	-11.0148
▁سرحدی	-11.0163
▁160	-11.017
8)	-11.0173
▁حلف	-11.0178
▁ہورن	-11.018
▁شہرت	-11.0181
▁ترجمان	-11.0185
▁ہینڈل	-11.0187
▁جلاوطنی	-11.0196
▁سمجھا۔	-11.0197
▁مائیکرو	-11.0201
عاد	-11.0203
▁استوا	-11.0226
▁سوان	-11.0229
ist	-11.0243
▁جیوا	-11.0245
وئل	-11.0252
طلاق	-11.0253
RIBA	-11.0254
▁بالادست	-11.0254
▁بزرگ	-11.0254
▁پروڈکٹ	-11.0255
▁خمیر	-11.0255
▁پرجوش	-11.0255
▁سککوں	-11.0255
▁فنگس	-11.0255
4)	-11.0255
▁ہیومن	-11.0256
سلط	-11.0256
▁1921	-11.0259
نگھائی	-11.0262
▁مارجن	-11.0263
▁(199	-11.0274
وشن	-11.0274
▁لگائی	-11.0275
IN	-11.0278
▁بھاپ	-11.0284
▁پوشید	-11.0287
▁آرکی	-11.0289
▁صفت	-11.0291
ٹیٹ	-11.0292
▁مہلک	-11.0299
توازن	-11.0302
یوا	-11.0306
راغ	-11.0308
▁خا	-11.0308
▁امکانات	-11.0311
خط	-11.0316
▁گار	-11.0321
لیف	-11.0322
▁جات	-11.0322
▁پہنا	-11.0334
ائنٹ	-11.0339
▁نیپول	-11.0345
▁خریدی	-11.0351
▁دیکھتا	-11.0352
نتھ	-11.0353
▁تاروں	-11.0355
▁عربوں	-11.0355
▁نووا	-11.0358
نوس	-11.0362
▁گلیوں	-11.0373
▁ہلز	-11.0377
/'	-11.0384
▁اسکیل	-11.0385
▁مج	-11.0386
▁گولڈن	-11.0386
▁منطقی	-11.0392
▁بلغاری	-11.0399
▁سویڈش	-11.0399
▁پھٹ	-11.0399
▁فزکس	-11.0399
▁جعل	-11.0399
▁طرازی	-11.0399
▁لارنس	-11.04
▁لچکدار	-11.0401
▁میگن	-11.0402
▁بازار	-11.0403
▁بستر	-11.0403
کروشیا	-11.0404
▁کلیسیا	-11.0404
▁برتر	-11.0407
▁لوئی	-11.0409
▁ڈیزائنر	-11.0409
▁گاڑیاں	-11.0413
X	-11.0432
9)	-11.0436
▁ریاضیات	-11.0438
▁پائن	-11.0438
▁قیا	-11.0438
مادیت	-11.0446
▁ٹکٹ	-11.0448
ومیٹر	-11.0455
▁فارمول	-11.0463
0)	-11.0467
▁تیرہ	-11.0476
▁آنت	-11.0479
▁ضابط	-11.0483
▁احاط	-11.0498
ted	-11.05
گٹ	-11.0505
sch	-11.0508
سلاو	-11.0518
▁نکالا	-11.0523
▁مہینہ	-11.0529
▁روکت	-11.0535
US	-11.0538
mon	-11.0544
▁اطراف	-11.0546
▁انشورنس	-11.0546
▁تجریدی	-11.0546
▁تضاد	-11.0546
▁فیوژن	-11.0546
▁ماڈرن	-11.0546
ρ	-11.0546
▁بیلاروس	-11.0546
▁مویشی	-11.0546
▁اینڈریو	-11.0547
▁کنزرویٹو	-11.0547
▁مارگریٹ	-11.0548
▁چلائے	-11.055
▁1928	-11.0551
▁وکٹر	-11.0553
▁1898	-11.0554
▁ہرٹز	-11.0563
▁درواز	-11.0563
▁گھوڑ	-11.0563
▁دھماکہ	-11.0567
▁دبان	-11.0577
▁درجن	-11.0586
▁فائٹر	-11.0586
ard	-11.0588
▁سازش	-11.059
▁سرگرم	-11.0599
وئیل	-11.0603
▁توڑن	-11.0606
کوپن	-11.0606
اگا	-11.0612
▁رجحانات	-11.0613
▁پہچانا	-11.0618
▁سیکھا	-11.0635
-4	-11.0654
معاوضہ	-11.068
ویک	-11.0687
قہ	-11.0691
κ	-11.0696
محاصرہ	-11.0696
−	-11.0696
▁آئسوٹوپ	-11.0696
▁الجھن	-11.0696
▁تنصیب	-11.0696
▁پھنس	-11.0696
سعود	-11.0696
▁گوتم	-11.0696
▁کشیدگی	-11.0696
▁خوفزد	-11.0697
▁ہارورڈ	-11.0697
▁کاپٹر	-11.0698
بیس	-11.0699
▁میڈیم	-11.0701
ورش	-11.0705
ورن	-11.0705
ثنا	-11.0707
▁ڈیلٹا	-11.071
▁گوڈ	-11.0712
▁1850	-11.0712
▁رسی	-11.0713
یکٹس	-11.0713
▁گرل	-11.0721
▁شارٹ	-11.0728
▁ذر	-11.0732
▁آگسٹ	-11.0743
▁پیئر	-11.0747
لاؤ	-11.075
des	-11.0761
▁لکیر	-11.0771
▁دلائی	-11.0774
وال	-11.0796
▁حادث	-11.0797
سابقہ	-11.0798
su	-11.0799
▁وکٹوری	-11.08
ess	-11.0801
▁چھپ	-11.0801
ٹرم	-11.0804
▁چوٹ	-11.0804
▁لگے	-11.0807
▁جڑی	-11.081
چٹ	-11.0811
▁آرکیٹیکچر	-11.0818
▁وینڈ	-11.0826
ko	-11.0841
▁سیلز	-11.0841
▁عبد	-11.0845
▁واقف	-11.0845
▁انٹارکٹک	-11.0847
▁قیصر	-11.0847
▁لمیٹڈ	-11.0847
▁XXIII	-11.0847
▁پلازہ	-11.0847
▁انخلا	-11.0847
▁روادار	-11.0847
▁دوگنا	-11.0848
▁مورفولوجی	-11.0848
▁کیپیٹل	-11.0848
tes	-11.0848
▁ہارمون	-11.085
▁بیوہ	-11.085
▁گائیڈ	-11.0851
▁1908	-11.0851
▁خلاص	-11.0852
▁متاثرین	-11.0853
▁مندرج	-11.0859
▁لٹل	-11.0859
▁پالت	-11.0866
ism	-11.0869
ill	-11.0875
▁(9	-11.0879
تھم	-11.0884
▁عین	-11.0894
▁رہیں	-11.0904
▁ہاورڈ	-11.0906
▁ہیلنس	-11.0935
جیکٹ	-11.095
▁رقب	-11.0955
داد	-11.0956
▁لور	-11.0957
غیر	-11.096
▁استح	-11.0962
▁دعا	-11.0966
پیدائش	-11.0967
▁سود	-11.0967
▁گناہ	-11.0976
▁کامن	-11.098
وسکی	-11.0987
طرفہ	-11.0991
▁مدعو	-11.1001
▁مسیسیپی	-11.1001
▁میتھوڈسٹ	-11.1001
▁مکانات	-11.1001
▁آڈیشن	-11.1001
▁انسٹال	-11.1001
▁بقا	-11.1001
▁پرجیوی	-11.1001
▁پڑے	-11.1001
▁ایبیریا	-11.1002
▁منیجر	-11.1002
▁سائمن	-11.1003
tion	-11.1006
▁بریوری	-11.1006
▁1854	-11.1009
▁تس	-11.1009
▁ضمنی	-11.1012
▁بریڈ	-11.1012
▁غز	-11.1013
▁لاش	-11.1014
▁وولٹ	-11.1016
▁نقاد	-11.1017
▁بیداری	-11.1018
▁امام	-11.1019
▁رہن	-11.1033
all	-11.1035
▁پیٹرن	-11.1056
▁پسندانہ	-11.106
▁ریگ	-11.1061
▁موٹی	-11.1069
▁(7	-11.107
▁آرکٹ	-11.1075
▁بربر	-11.1081
6)	-11.1091
▁سیزر	-11.1093
▁فلپس	-11.1095
▁گلاب	-11.1098
▁مائیک	-11.1109
کھا	-11.1111
▁سلور	-11.1114
vo	-11.1128
▁خو	-11.1131
▁ہٹن	-11.1134
▁کلور	-11.1143
▁(13	-11.1149
▁پکڑن	-11.1157
ئل	-11.1157
▁capacitor	-11.1157
▁ایلومینیم	-11.1157
▁ریزورٹ	-11.1157
▁صوابدید	-11.1157
▁پلائموتھ	-11.1157
▁مجاز	-11.1158
▁گونج	-11.1161
▁پہی	-11.1161
▁1932	-11.1161
▁ہیرالڈ	-11.1162
▁کٹھ	-11.1164
▁AD	-11.1165
▁کاسٹیل	-11.1175
▁کمان	-11.1179
▁آپشن	-11.1182
▁وائن	-11.1189
▁اسٹیپ	-11.1194
▁فریڈم	-11.1195
▁سنبھالن	-11.1198
▁فوت	-11.12
7)	-11.1208
▁کرے۔	-11.1218
ry	-11.1225
1865	-11.1227
▁بیمار	-11.1243
▁میگ	-11.1245
▁ہیلن	-11.1245
▁بدلت	-11.1262
سڈن	-11.1285
▁40،000	-11.1287
▁گینگ	-11.1303
▁لیول	-11.1304
نوشی	-11.1308
▁فکر	-11.1312
▁Schwarzenegger	-11.1316
▁ادراک	-11.1316
▁اعضاء	-11.1316
▁اکنامک	-11.1316
▁صحیف	-11.1316
▁مراٹھا	-11.1316
*	-11.1316
▁آبدوز	-11.1316
کرسمس	-11.1316
▁وارث	-11.1317
ماچل	-11.1317
▁یادداشت	-11.1317
▁بلایا	-11.1324
▁انٹرسٹیٹ	-11.1324
iz	-11.1331
▁ریڈار	-11.134
▁ڈیوٹی	-11.1345
ung	-11.1352
NA	-11.1359
▁122	-11.136
فریقین	-11.136
▁ڈرائیور	-11.136
▁کرائے	-11.1368
1903	-11.137
ضم	-11.1371
▁دیوی	-11.1376
سارا	-11.1376
روگ	-11.1384
ana	-11.1389
▁کامیڈی	-11.1395
فری	-11.1397
▁سچ	-11.1401
نٹوش	-11.1402
وٹو	-11.1428
▁سروسز	-11.1432
▁بوک	-11.1437
ton	-11.144
▁ٹینس	-11.1447
▁فیز	-11.1448
فریڈ	-11.1452
▁قاص	-11.1453
▁اداکارہ	-11.1458
انیا	-11.1462
▁20،000	-11.1466
du	-11.1471
▁افلاطون	-11.1477
▁بالواسطہ	-11.1477
▁تشہیر	-11.1477
▁تفتیش	-11.1477
▁عجائب	-11.1477
▁لطیفہ	-11.1477
▁ماتحت	-11.1477
▁جھوٹ	-11.1477
▁کارپوریٹ	-11.1477
▁کیٹالان	-11.1477
▁فروش	-11.1477
▁پٹریوں	-11.1478
▁کلوگرام	-11.1478
▁گزارا	-11.1478
▁تاریک	-11.148
▁حساسیت	-11.1481
▁ہائپر	-11.1481
▁ٹائٹو	-11.1482
▁مقدونیائی	-11.1482
▁1857	-11.1484
▁فیکٹریوں	-11.1487
▁کلچر	-11.1493
▁احمد	-11.1494
امریکی	-11.1495
2.5	-11.1499
▁ڈسکو	-11.1509
▁30،000	-11.1512
قار	-11.1515
▁سیلون	-11.1516
od	-11.1538
▁بنتے	-11.154
▁اسٹرا	-11.154
▁رپورٹس	-11.1543
روٹ	-11.1543
▁ہرن	-11.1543
▁جلاوطن	-11.1544
▁وائڈ	-11.1544
ja	-11.1555
▁فیم	-11.1555
بڑ	-11.1581
لیئر	-11.1601
▁لوگو	-11.1604
▁ڈالت	-11.1605
▁جوڑی	-11.163
▁تاثر	-11.1641
!	-11.1641
▁تعصب	-11.1641
▁ہیمپشائر	-11.1641
▁برانچ	-11.1641
ü	-11.1641
▁زیلڈا	-11.1641
▁شاہراہ	-11.1641
▁معجز	-11.1641
▁وائلن	-11.1641
▁اسٹینڈرڈ	-11.1641
▁فادر	-11.1642
▁معائن	-11.1642
▁زاوی	-11.1647
▁دیہات	-11.1648
▁پہنچت	-11.1653
sta	-11.1655
▁1.2	-11.1657
▁بھگ	-11.1688
▁آئیں	-11.1691
▁ٹائی	-11.1693
▁تیس	-11.1696
▁جانتے	-11.1701
▁گرو	-11.1713
▁فرائ	-11.1716
▁فریڈی	-11.1735
▁کرنی	-11.174
▁سوگ	-11.1742
▁یارڈ	-11.1743
▁نیوٹن	-11.1746
▁لوئ	-11.1746
1875	-11.1748
زیر	-11.1754
▁بھیجی	-11.176
ub	-11.1766
▁جل	-11.1767
lin	-11.1772
▁کمیونیکیشن	-11.1781
▁Se	-11.1796
▁بیگ	-11.1796
▁عملدرآمد	-11.1808
▁کرسچن	-11.1808
▁نفرت	-11.1808
▁الہام	-11.1808
▁گھومت	-11.1808
▁کارٹون	-11.1808
▁ٹیکسٹائل	-11.1809
▁پیکیج	-11.1809
کنواری	-11.181
▁ٹشو	-11.181
▁استثن	-11.1814
▁پیوس	-11.1818
▁مونرو	-11.1819
▁رال	-11.1826
▁ورتھ	-11.1835
▁سلو	-11.1838
▁جوہان	-11.1857
▁واس	-11.1864
▁معاف	-11.1876
ٹیورٹ	-11.1876
جدید	-11.1877
▁تبصرے	-11.1878
1923	-11.1894
▁شپنگ	-11.1894
▁برکل	-11.1913
رتی	-11.1921
ائزر	-11.1922
سٹس	-11.1923
▁حریفوں	-11.193
▁سرحدیں	-11.1937
▁ہارن	-11.1944
▁تجاو	-11.195
سینو	-11.1962
واڈ	-11.1965
▁جسٹس	-11.1969
▁آذربائیجان	-11.1977
▁لوفتواف	-11.1977
▁مراقبہ	-11.1977
▁پیتھوجین	-11.1977
▁ٹووالو	-11.1977
▁جمالیات	-11.1977
▁خاموش	-11.1978
▁ملبوس	-11.1978
▁بیسیلیک	-11.1979
▁چائن	-11.198
▁1916	-11.1983
▁غص	-11.1983
▁سیکٹر	-11.1983
▁1839	-11.1987
ڈوس	-11.1992
▁امار	-11.1992
▁کلید	-11.1997
▁عثمان	-11.2
▁رومانی	-11.2002
ps	-11.2004
▁پارش	-11.2009
▁کرائی	-11.2036
300	-11.2038
▁میسی	-11.2041
▁الیکٹر	-11.2043
وگرافک	-11.2045
کشش	-11.2045
1901	-11.2047
▁تحفظات	-11.2052
▁Va	-11.2053
▁سیونگ	-11.206
ایف	-11.2069
▁Ne	-11.2076
1847	-11.2087
▁کریک	-11.2087
▁ممالی	-11.2088
1842	-11.2089
پیٹ	-11.2106
▁فریکوئنسی	-11.215
▁اوہائیو	-11.215
گالیشیا	-11.215
▁کلنٹن	-11.215
▁اسٹیبل	-11.215
▁کھیت	-11.215
چانک	-11.2151
▁پرنسپل	-11.2152
▁بوڑھ	-11.2152
▁ریڈیکل	-11.2154
▁کریٹاسی	-11.2157
▁پگ	-11.2157
▁سواری	-11.2159
▁1836	-11.216
فارمیشن	-11.2165
und	-11.2166
▁برادر	-11.217
بود	-11.2173
▁نعرہ	-11.2177
der	-11.2183
▁ٹرنر	-11.2185
سلر	-11.219
▁جیٹ	-11.2207
▁ٹونی	-11.2233
وگو	-11.2241
▁ٹریس	-11.2255
▁Li	-11.2262
سمار	-11.2266
ژو	-11.2288
com	-11.2292
tr	-11.2294
1810	-11.2299
▁To	-11.2301
▁ہماری	-11.2303
▁نیش	-11.2309
وع	-11.2321
▁فتوح	-11.2325
×	-11.2325
▁امتزاج	-11.2325
▁تقلید	-11.2325
▁جھلی	-11.2325
▁مہاکاوی	-11.2325
▁البلد	-11.2325
▁سفیر	-11.2325
▁اسپیشل	-11.2325
▁ٹھیک	-11.2325
1882	-11.2326
▁پولرائزیشن	-11.2326
▁ایکسچینج	-11.2326
▁کیوبسٹ	-11.2326
▁انتونیو	-11.2327
▁اسٹڈیز	-11.2327
▁سکندر	-11.2328
▁عبدال	-11.2328
▁مکانی	-11.2328
ٹرومن	-11.233
▁نیلسن	-11.2332
▁ویٹو	-11.2337
▁پاتھ	-11.2337
▁گیٹس	-11.2339
-13	-11.2343
▁متغیرات	-11.2344
ڈورف	-11.2347
▁رویہ	-11.2348
▁جناز	-11.2349
▁کھوج	-11.2352
▁خور	-11.2352
▁انرج	-11.2367
▁افسرد	-11.2368
▁عراقی	-11.239
میرا	-11.2394
وڈیو	-11.2397
▁پیشرو	-11.2399
1878	-11.2422
ریئرز	-11.2427
الٹی	-11.2437
ویڈیو	-11.2438
chi	-11.2443
ical	-11.2444
راسک	-11.2452
▁ٹاک	-11.246
ڈونگ	-11.2466
نگزی	-11.2467
رٹیکس	-11.2471
-5	-11.2481
▁اسٹارٹ	-11.2482
▁سونپ	-11.2487
▁(14	-11.249
تاؤ	-11.2496
میٹک	-11.2504
ɛ	-11.2504
▁زرخیز	-11.2504
▁یونیفارم	-11.2504
ε	-11.2504
τ	-11.2504
▁ہاضم	-11.2504
▁چھلانگ	-11.2504
▁پتیوں	-11.2504
▁کچل	-11.2504
▁پورٹیبل	-11.2504
ٹریاسک	-11.2504
light	-11.2504
▁مجسٹریٹ	-11.2504
▁ہمسای	-11.2505
▁ابھرت	-11.2507
▁کیپٹل	-11.2508
▁رسول	-11.2508
▁1935	-11.251
ینجمن	-11.2515
▁صفحات	-11.252
▁لیکچرز	-11.2523
ئیم	-11.2524
▁قبولیت	-11.2525
پیرس	-11.2532
▁لہج	-11.2532
▁نبی	-11.2543
▁ہیگل	-11.2561
▁راز	-11.2566
▁صوفی	-11.2588
راض	-11.2592
▁ڈریک	-11.26
▁مہر	-11.2606
▁امیج	-11.2613
▁مائن	-11.2623
▁گاہیں	-11.2629
▁گلڈ	-11.2636
▁In	-11.2638
▁نسلیں	-11.2673
▁فلائ	-11.2678
▁پخت	-11.2684
▁فاؤنڈ	-11.2684
æ	-11.2686
▁انٹرپرائز	-11.2686
▁ٹرانسکرپشن	-11.2686
▁البانیہ	-11.2686
▁مبہم	-11.2686
▁لیجنڈ	-11.2686
▁کیٹالونی	-11.2686
▁بوہیمی	-11.2686
▁کپتان	-11.2686
▁کنٹینر	-11.2686
▁اسپرنگ	-11.2686
▁وائرلیس	-11.2687
▁ترسیل	-11.2688
▁کرنل	-11.2688
▁چھپا	-11.2689
▁بدام	-11.269
▁سبزیوں	-11.2691
▁چلی	-11.2693
▁فنانس	-11.2694
▁بروز	-11.2694
▁ریلیف	-11.27
▁باغات	-11.2704
be	-11.2732
▁ڈرا	-11.2737
▁گند	-11.2742
ولیج	-11.2748
▁لسٹ	-11.2748
▁سنک	-11.2752
▁کوالیفائی	-11.2766
▁ڈپول	-11.277
▁پیپر	-11.2788
▁پلانٹس	-11.279
ay	-11.2793
▁اربن	-11.2819
ارتھ	-11.2823
نیف	-11.283
ویگ	-11.2833
▁فلائی	-11.2834
▁پراگ	-11.2842
▁مزاحم	-11.2846
▁کسٹم	-11.2847
▁مرسی	-11.2855
مانی	-11.2857
ect	-11.2858
▁گہرا	-11.2868
▁اناطولیہ	-11.2871
▁انکارپوریٹ	-11.2871
▁ایڈمنسٹریشن	-11.2871
▁قفقاز	-11.2871
▁کفالت	-11.2871
▁1904	-11.2871
▁ذائقہ	-11.2871
▁رونالڈ	-11.2871
▁جھک	-11.2871
▁احیا	-11.2871
▁خزانہ	-11.2871
▁ڈینیوب	-11.2871
طلع	-11.2871
▁Ba	-11.2872
▁دوہری	-11.2873
▁لپیٹ	-11.2873
▁کمایا	-11.2873
▁ہیلینسٹ	-11.2874
▁پتے	-11.2874
▁گوگل	-11.2876
برن	-11.2877
▁یونگل	-11.2878
▁سینسر	-11.2878
per	-11.289
▁اوبر	-11.2891
اسرار	-11.2898
ولٹ	-11.2898
bu	-11.2908
▁فنکشنل	-11.291
▁وارن	-11.2912
چیسٹر	-11.2913
▁اسٹیم	-11.2919
▁غار	-11.2919
موشن	-11.292
▁کلون	-11.2923
مورا	-11.2926
▁خوشی	-11.2937
▁پبلش	-11.2941
15،000	-11.2941
▁Ka	-11.2945
▁مہنگا	-11.2946
lis	-11.2952
▁لیوس	-11.2952
▁فلٹر	-11.2963
مینٹ	-11.2967
▁صفر	-11.2973
▁گروو	-11.2975
▁فلک	-11.2985
▁(197	-11.2988
▁سنگا	-11.2991
▁ایپس	-11.2993
▁ٹلس	-11.3018
op	-11.3019
تھرو	-11.3031
اگرچہ	-11.3051
موجودہ	-11.3051
پوسٹل	-11.3051
▁گلیشی	-11.3052
▁تغیر	-11.3052
سامان	-11.3054
▁اسٹینل	-11.3056
سازی	-11.3057
▁انتھونی	-11.306
▁نامکمل	-11.306
▁گنبد	-11.306
▁موزائیک	-11.306
▁پروموشن	-11.306
▁ڈیجیمون	-11.306
▁رائفل	-11.306
▁ہیمبرگ	-11.3063
▁ڈربی	-11.3063
▁امیاد	-11.3064
▁نوکری	-11.3067
▁اتھانیسس	-11.3067
▁انڈیز	-11.3067
▁نکات	-11.3076
▁اٹیک	-11.308
▁طبقہ	-11.3081
گول	-11.3089
▁ساکھ	-11.3089
▁پیار	-11.31
ST	-11.3119
▁وارڈ	-11.3134
▁بوائے	-11.3138
▁ریب	-11.3142
▁کامنز	-11.3164
▁پنج	-11.3171
▁چھو	-11.3177
وزائی	-11.3182
چیو	-11.3186
▁ایلیٹ	-11.3188
▁ہنر	-11.3192
ڈکشن	-11.3205
▁ویگا	-11.321
▁زہریل	-11.321
▁وبا	-11.3223
فارم	-11.3227
ous	-11.3229
go	-11.3236
▁تیرہو	-11.3249
▁منڈی	-11.3249
▁تحف	-11.3252
▁ایمرجنسی	-11.3252
▁ڈھول	-11.3252
▁اسپانسر	-11.3252
▁جاسوسی	-11.3252
▁نااہل	-11.3252
▁تھراپی	-11.3252
▁شارلٹ	-11.3252
▁ڈائمنڈ	-11.3252
▁بیچلر	-11.3253
▁ہجے	-11.3254
▁کوئنز	-11.3254
▁آوازیں	-11.3256
▁رجمنٹ	-11.3256
▁جادوگر	-11.3257
▁ثق	-11.3258
▁1872	-11.326
▁ولسن	-11.3261
▁1849	-11.3262
▁1815	-11.3263
کانٹینینٹل	-11.3267
▁منع	-11.3268
جرمن	-11.3269
▁آسکر	-11.3271
ایچ	-11.3273
▁انکوڈر	-11.3273
▁فیچر	-11.3274
▁چوہ	-11.3282
رخانہ	-11.3287
سیئس	-11.3287
▁جمی	-11.3295
▁130	-11.33
yl	-11.331
▁چوک	-11.3325
▁آرکیڈ	-11.333
▁لڑاک	-11.3338
▁اکائیوں	-11.3339
،500	-11.3341
▁کروم	-11.3362
لیٹس	-11.3384
▁لینس	-11.3386
▁لینن	-11.339
یسٹا	-11.34
▁موج	-11.34
ris	-11.3414
لیشن	-11.3429
▁مذک	-11.3431
CA	-11.3439
▁سویٹ	-11.3445
بدسلوکی	-11.3448
▁کھدائی	-11.3448
▁ہوجائیں	-11.3448
▁مراکش	-11.3448
▁کارٹریج	-11.3448
▁دبایا	-11.3448
▁کمپریس	-11.3448
▁شبیہ	-11.3448
خلیفہ	-11.3449
پہر	-11.345
▁برنارڈ	-11.3453
▁سجایا	-11.3456
▁رومانس	-11.3457
▁اردن	-11.3458
▁منچوری	-11.3459
▁خسر	-11.346
▁آگسٹین	-11.3461
▁نوٹس	-11.3466
▁1400	-11.3469
wi	-11.3469
▁ہیرا	-11.3473
ندر	-11.3475
▁چول	-11.3478
ica	-11.3479
▁کمیونیکیشنز	-11.348
▁سنائی	-11.3485
▁پیج	-11.3487
ژ	-11.3488
▁ریجنٹ	-11.349
▁کمپوزر	-11.3491
▁ایگل	-11.3493
شکن	-11.3498
بیل	-11.3501
فوق	-11.3504
▁صفات	-11.3505
ium	-11.3509
▁حادثات	-11.3513
-8	-11.3517
ans	-11.352
▁الگور	-11.352
▁لٹو	-11.356
▁کلائن	-11.3571
▁تھور	-11.3575
فع	-11.3581
ٹائن	-11.3608
▁Bo	-11.3617
ٹونک	-11.3621
EC	-11.3625
▁چیس	-11.3636
▁ماؤس	-11.3637
▁ریپر	-11.3637
▁میگاواٹ	-11.3648
▁پھیپھڑ	-11.3648
ä	-11.3648
▁خودکشی	-11.3648
▁کاتالونی	-11.3648
▁قسط	-11.3648
▁سوترا	-11.3648
▁ٹیرا	-11.3648
▁ناروے	-11.3648
▁بھوک	-11.3648
▁پیڈمونٹ	-11.3649
▁Twi	-11.3649
▁سامراجی	-11.3649
▁رجسٹریشن	-11.3651
ٹیشن	-11.3651
▁ڈریگن	-11.3652
▁ہالینڈ	-11.3652
▁گڑھ	-11.3652
▁مسخ	-11.3653
▁ٹوائل	-11.3653
▁وِ	-11.3653
▁گیارہ	-11.3655
▁1915	-11.3656
▁تکرار	-11.3656
▁اکیس	-11.3659
▁شوگر	-11.3667
▁1820	-11.3672
لیوپول	-11.3686
مشنریوں	-11.3689
▁مائنر	-11.3699
▁ٹال	-11.37
▁گولف	-11.3701
لمین	-11.3711
ڈیسن	-11.3741
کیم	-11.3754
1833	-11.3764
گریٹ	-11.3781
ment	-11.3783
ip	-11.3797
▁Sch	-11.38
▁ایٹر	-11.38
▁بخار	-11.384
ولوجسٹ	-11.3852
گفتگو	-11.3852
▁انکوائری	-11.3852
▁بیپٹسٹ	-11.3852
▁ہستی	-11.3852
▁وٹامن	-11.3852
▁اسپیکٹر	-11.3852
▁ٹاسک	-11.3853
▁ایبٹ	-11.3855
▁سیرامک	-11.3855
▁گورڈ	-11.3855
▁خواب	-11.3855
▁پیٹرو	-11.3862
1902	-11.3866
▁25،000	-11.3871
▁Le	-11.3883
▁شفٹ	-11.3886
▁بروس	-11.3897
▁آپریٹر	-11.3898
▁میٹرکس	-11.3899
▁(198	-11.3906
▁بیلج	-11.3912
▁گب	-11.3914
▁ورکنگ	-11.3917
▁ہنس	-11.3917
▁بارود	-11.3917
لوگ	-11.3928
بنیادی	-11.3931
8،000	-11.3933
ju	-11.3939
▁گلے	-11.3946
ella	-11.3948
▁ڈینیئ	-11.3957
لبرٹ	-11.3958
فورٹ	-11.3962
▁بیٹل	-11.3965
▁ساشا	-11.3965
▁آپٹک	-11.3983
▁ایڈورڈز	-11.3992
▁اوب	-11.4
1825	-11.4008
▁اسٹیمپ	-11.4018
▁نماز	-11.4025
▁میکرو	-11.4035
3.2	-11.4041
▁مماثل	-11.4049
الدین	-11.4052
ó	-11.406
ه	-11.406
▁خسار	-11.406
▁نظار	-11.406
▁نوادرات	-11.406
▁چوراہ	-11.406
▁ڈیفالٹ	-11.406
▁یونیسکو	-11.406
▁ہولڈ	-11.406
▁سراہا	-11.406
▁تلوار	-11.406
▁سمجھوت	-11.406
▁سرکلر	-11.406
▁گزارت	-11.4061
▁مزار	-11.4061
▁وکیل	-11.4062
▁ڈیبیو	-11.4062
▁ڈیویڈ	-11.4063
▁گوانگ	-11.4064
▁کیمرون	-11.4064
▁1905	-11.4066
▁واٹسن	-11.4067
▁السیس	-11.4068
▁1600	-11.4072
تفس	-11.4073
▁انزائم	-11.4073
▁تاثرات	-11.4081
▁چارٹس	-11.4081
▁ٹیمپل	-11.4086
▁پلاٹین	-11.4091
▁1200	-11.4091
▁مرت	-11.4095
▁ڈریم	-11.4099
▁کھائی	-11.4101
1.9	-11.4102
▁1700	-11.4106
▁سبھی	-11.4115
▁لیچ	-11.4116
▁تانگ	-11.4119
▁مورفی	-11.4121
گوٹا	-11.4123
ناتھن	-11.4126
▁لیتی	-11.4138
ten	-11.4146
▁پاول	-11.4156
1856	-11.4156
▁پیکٹ	-11.4156
▁بجات	-11.4163
▁سازو	-11.4167
راث	-11.4175
▁ٹنگسٹ	-11.4175
▁ویرا	-11.4188
▁منزلہ	-11.4194
چرڈ	-11.421
ny	-11.4213
▁سوچت	-11.4225
ٹونین	-11.4228
▁مشیل	-11.423
جتنا	-11.4256
▁خادم	-11.4258
ο	-11.4273
▁طحالب	-11.4273
▁چیواہوا	-11.4273
▁یوٹریچٹ	-11.4273
π	-11.4273
▁مترجم	-11.4273
▁سپانسر	-11.4273
▁شلاچ	-11.4273
▁گالیشین	-11.4273
▁آرنلڈ	-11.4273
▁مبارک	-11.4273
▁خاکہ	-11.4273
▁سیمینار	-11.4273
▁باندھ	-11.4273
▁محت	-11.4274
▁آٹوموبائل	-11.4274
▁انتون	-11.4275
▁کروشین	-11.4275
▁ٹائیگر	-11.4275
▁مرجان	-11.4276
عید	-11.4276
▁ضمیر	-11.4277
▁وینزو	-11.4277
▁استاد	-11.428
▁نسبیت	-11.428
بولا	-11.4283
▁جادو	-11.4284
▁پڑھت	-11.4287
حض	-11.4291
▁بارڈر	-11.4293
gra	-11.4299
▁کریول	-11.4303
▁Lo	-11.4309
son	-11.4316
▁کریگ	-11.4317
▁فائی	-11.4322
▁دیکھنا	-11.4322
▁بھیجت	-11.4323
▁ریشم	-11.4333
▁ٹیبلٹ	-11.434
▁بجان	-11.4341
▁جدیدیت	-11.4342
▁ریپبلکنز	-11.4344
ez	-11.4345
الیا	-11.4347
▁کیرول	-11.4369
▁پائ	-11.4371
بذ	-11.4374
1776	-11.4387
وریج	-11.4391
پتہ	-11.4403
سیلٹک	-11.4404
▁Po	-11.4413
تناسب	-11.4418
جیانگ	-11.4422
▁لیسٹ	-11.4431
ix	-11.4443
▁ہولی	-11.4449
ریئر	-11.4462
▁شرٹ	-11.4463
منڈو	-11.4468
▁ماریان	-11.447
-11	-11.447
=	-11.449
▁مرغیوں	-11.449
▁ہولوکاسٹ	-11.449
▁شعاع	-11.449
▁کرسٹوفر	-11.449
▁گزرگاہ	-11.4491
▁نوشتہ	-11.4491
کھنڈ	-11.4491
▁ڈونلڈ	-11.4491
▁امیونولوج	-11.4491
▁ہبسبرگ	-11.4491
▁کھایا	-11.4491
▁مائکروفون	-11.4492
▁پیٹریاٹ	-11.4492
▁کشمیر	-11.4493
▁ٹوالو	-11.4493
▁فلاح	-11.4494
▁لٹکا	-11.4494
▁تجزیاتی	-11.4495
▁اندھیر	-11.4496
▁پچاس	-11.4497
▁امینو	-11.4498
▁ٹوکری	-11.4501
دود	-11.4502
▁ڈیفی	-11.4503
▁ریوڑ	-11.4504
▁ہومر	-11.4508
▁235	-11.4513
▁3.0	-11.4513
▁2500	-11.4515
▁پاؤ	-11.4515
اگون	-11.4518
▁128	-11.4519
▁مینڈیٹ	-11.452
▁ملایا	-11.4532
▁کلسٹر	-11.4537
▁کاشتکاری	-11.4538
▁اوٹو	-11.4554
▁ویلیم	-11.4556
uk	-11.4556
▁یوٹا	-11.4582
▁کاغذات	-11.4583
▁پہن	-11.4586
▁بابل	-11.459
▁ٹائل	-11.4591
1863	-11.4594
▁ہیوی	-11.4597
▁ربی	-11.4616
فکسڈ	-11.4622
ورج	-11.4636
▁ڈیانا	-11.4639
▁کریٹ	-11.4646
لائیڈ	-11.465
▁بھاگن	-11.4651
▁ملاح	-11.4652
▁Pr	-11.4652
ty	-11.4653
▁ٹرائل	-11.4658
cul	-11.4659
▁61	-11.4665
▁Ha	-11.4673
▁مالٹ	-11.4677
ble	-11.4678
ینٹل	-11.4689
▁گلوب	-11.4689
ائق	-11.4705
ریون	-11.471
è	-11.4713
▁فرڈینینڈ	-11.4713
▁محنت	-11.4713
▁معاشرہ	-11.4713
▁چوڑائی	-11.4713
معقول	-11.4713
▁تھنڈر	-11.4713
▁میتھیو	-11.4713
▁ہائبرڈ	-11.4713
▁معذور	-11.4713
▁ملحد	-11.4713
▁گزارے	-11.4713
▁سرجری	-11.4713
▁پیشکش	-11.4713
▁کمپاس	-11.4713
▁گورنمنٹ	-11.4714
▁مہاجر	-11.4715
▁بٹالین	-11.4717
▁سیفٹی	-11.4717
▁نیچرل	-11.4718
Zn	-11.4719
▁جیومیٹر	-11.4719
▁پندرہ	-11.4723
الیف	-11.4727
▁رخ	-11.4728
تفری	-11.4729
▁دادی	-11.4729
▁شاپ	-11.4732
▁1.1	-11.4736
▁میپ	-11.4738
▁گھن	-11.4742
نڈوتھ	-11.4763
▁ایکویٹی	-11.4766
بھا	-11.4798
▁پھیلان	-11.48
▁An	-11.4803
لیتھک	-11.4804
▁Pe	-11.4817
ov	-11.4825
▁انتہا	-11.483
1789	-11.4833
▁ڈرل	-11.4836
▁برین	-11.4864
▁لیمب	-11.4864
▁گایا	-11.4876
▁ٹیکسٹ	-11.4887
▁ٹوپی	-11.4888
°	-11.4895
کبھی	-11.4896
▁زار	-11.4904
▁نواز	-11.4912
▁Ar	-11.4915
▁شوقی	-11.4916
▁کمیونز	-11.4921
▁لڑ	-11.4923
ς	-11.494
%	-11.494
▁ابراہیم	-11.494
▁Ptolem	-11.494
▁اسماعیل	-11.494
▁گارنیشن	-11.494
▁شیطان	-11.494
▁وژن	-11.494
▁اجرت	-11.494
olog	-11.494
▁بہادر	-11.494
▁پرائیویٹ	-11.494
▁چھڑی	-11.494
یوحنا	-11.494
▁منتظمین	-11.4941
▁پیتل	-11.4942
▁آریائی	-11.4942
▁بلوط	-11.4943
▁ہورہ	-11.4944
▁گود	-11.4944
▁1906	-11.4945
▁پرسنل	-11.4946
5.2	-11.4946
▁کنندگان	-11.4946
▁1838	-11.4947
▁ہارپر	-11.4948
▁عددی	-11.495
زگار	-11.495
▁1835	-11.495
▁بائیک	-11.4953
▁بخارات	-11.4954
▁الیکس	-11.4962
▁کندہ	-11.4965
جان	-11.4967
▁جنکشن	-11.4967
▁پلگ	-11.4968
ٹالین	-11.4972
▁مرح	-11.4976
چار	-11.4978
▁آنکھیں	-11.4979
▁خیمہ	-11.4979
مذاق	-11.498
▁بوئ	-11.4982
▁الٹا	-11.4991
فکری	-11.4997
4.7	-11.5
▁بندش	-11.5011
یٹیو	-11.5015
▁رہنا	-11.5017
▁ریان	-11.5023
je	-11.5024
ینٹین	-11.5028
▁روبی	-11.5031
▁قلی	-11.5033
▁برٹن	-11.5035
▁میرٹ	-11.504
چیمپ	-11.5043
▁دلائ	-11.5045
1874	-11.5056
1896	-11.5056
2.6	-11.506
fa	-11.5063
2.4	-11.5067
1750	-11.5067
ther	-11.507
▁اکائی	-11.5071
تدل	-11.5072
▁آبادکار	-11.5081
▁پروٹیک	-11.5083
1858	-11.5087
نجر	-11.5094
▁لونگ	-11.5095
▁کمپن	-11.5109
▁امب	-11.5115
مبرٹ	-11.5118
▁پلائ	-11.5118
▁Ju	-11.5122
▁ایڈون	-11.5135
ائیکاٹ	-11.5135
▁چڑھائ	-11.5151
▁چودہ	-11.5172
▁PAL	-11.5173
▁اوبلاست	-11.5173
▁اولمپیا	-11.5173
▁بصیرت	-11.5173
▁ذیابیطس	-11.5173
▁ڈگلس	-11.5173
▁نمٹا	-11.5173
▁قالین	-11.5173
▁نفیس	-11.5173
اہرہ	-11.5173
▁آرکیٹیکٹ	-11.5173
half	-11.5173
▁نکولائ	-11.5173
▁سنتھیس	-11.5173
▁ورجیل	-11.5173
زیورات	-11.5173
▁آئک	-11.5173
CAR	-11.5173
▁چالیس	-11.5174
▁جنریٹر	-11.5175
▁فرینڈ	-11.5176
▁فارورڈ	-11.5176
▁مورگن	-11.5179
▁ٹرانسف	-11.5182
پیش	-11.5182
▁MP	-11.5184
▁1846	-11.5185
▁مفکر	-11.5186
▁میگنیٹ	-11.5187
▁گزین	-11.5193
وینٹی	-11.5193
اللہ	-11.5195
▁He	-11.5201
▁کہانیاں	-11.5203
▁کسٹمر	-11.5211
پولیس	-11.5222
▁ماریو	-11.5235
▁باتھ	-11.5245
سینڈر	-11.5246
▁لوکو	-11.5248
▁کارلو	-11.5248
▁سنٹر	-11.5251
اندھی	-11.526
حفاظتی	-11.5265
▁شیڈ	-11.5267
ion	-11.5285
وزوک	-11.5286
tal	-11.5288
tive	-11.5297
▁Be	-11.5307
▁دکھان	-11.5313
▁ڈیسری	-11.5313
▁ہومو	-11.5316
tas	-11.5321
den	-11.5324
مردانہ	-11.5325
▁350	-11.5339
ger	-11.5372
we	-11.5381
▁قرب	-11.5394
نظر	-11.5401
ِ	-11.5401
nz	-11.5404
دیکھیں	-11.5409
ثیر	-11.5411
>	-11.5411
لوزیانا	-11.5411
▁استحقاق	-11.5411
▁استنبول	-11.5411
▁جھٹک	-11.5411
▁خرگوش	-11.5411
▁لوازمات	-11.5411
▁ولادیمیر	-11.5411
▁کولوراڈو	-11.5411
à	-11.5411
▁افواہ	-11.5411
▁رشوت	-11.5411
▁سپاہی	-11.5411
▁وایلیٹ	-11.5411
▁چرواہ	-11.5411
▁ایڈوانس	-11.5411
▁مصور	-11.5411
▁دخل	-11.5411
▁پارتھین	-11.5411
▁تیمور	-11.5412
igh	-11.5412
▁لگائے	-11.5415
▁مسوری	-11.5415
▁بوٹیوں	-11.5416
▁کزن	-11.5416
▁1877	-11.5421
▁1821	-11.5422
▁سدر	-11.5423
▁1895	-11.5425
▁بوب	-11.5427
▁الفا	-11.5432
▁کمپوزیشن	-11.5437
▁اکیل	-11.544
سٹائل	-11.544
▁سنجیدہ	-11.5456
ہلکا	-11.546
▁وکر	-11.5472
ریٹا	-11.5497
rn	-11.55
▁پلاس	-11.5502
▁شاک	-11.5509
رولنگ	-11.5531
والڈ	-11.5536
▁چڑھن	-11.5544
▁132	-11.5546
▁الما	-11.5549
▁پگھل	-11.555
▁بدعنوان	-11.5558
▁بائٹ	-11.5561
RE	-11.5563
▁پالپ	-11.5586
سیلا	-11.5598
جید	-11.5608
ریگن	-11.5618
▁فرن	-11.5626
▁اپارٹمنٹ	-11.5629
▁تعمی	-11.5639
▁امتحان	-11.5642
▁لچک	-11.5652
ū	-11.5655
میٹابولزم	-11.5655
▁تبلیغ	-11.5655
▁پھوٹ	-11.5655
▁چانسلر	-11.5655
▁کیٹلاگ	-11.5655
▁گھونسل	-11.5655
ö	-11.5655
▁شاگرد	-11.5655
ṣ	-11.5655
▁پڑی	-11.5655
▁برہمن	-11.5655
▁ژانگ	-11.5655
▁USB	-11.5655
▁رحم	-11.5655
▁ایڈونچر	-11.5655
▁گوریلا	-11.5656
عیش	-11.5657
▁وِگ	-11.5658
▁ڈپریشن	-11.5658
▁فولڈ	-11.5661
▁کردے	-11.5662
▁1889	-11.5664
▁ابھرن	-11.5666
-6	-11.5666
پینز	-11.5669
▁خودکار	-11.567
آبادیاتی	-11.567
تھرین	-11.567
▁پالمر	-11.5675
▁12،000	-11.5679
▁ملتوی	-11.568
▁شرم	-11.5684
فرانسیسی	-11.5685
جنوبی	-11.5685
▁Car	-11.5686
▁فالٹ	-11.57
ٹروف	-11.5702
▁ہاکین	-11.5703
▁زہریلا	-11.5708
▁ایڈنبر	-11.571
نسٹن	-11.5712
▁اڑا	-11.5729
گھم	-11.5731
▁مارکو	-11.5736
:00	-11.5737
ٹولز	-11.5739
▁کنب	-11.5744
▁بیٹھا	-11.5745
ریٹس	-11.5745
▁لگاتا	-11.5759
▁گیج	-11.5759
▁پریمی	-11.5766
▁پام	-11.579
▁فرانکو	-11.5799
▁فیکٹر	-11.5804
▁زخم	-11.5808
ano	-11.581
وفیل	-11.5831
▁عط	-11.5841
▁انکوڈ	-11.5865
▁انتظا	-11.5886
6.4	-11.5891
▁فوٹ	-11.5894
222	-11.5896
ماؤتھ	-11.5899
▁الجزائر	-11.5905
▁مشغول	-11.5905
▁مونٹریال	-11.5905
▁وائکنگ	-11.5905
▁آبزرویٹری	-11.5905
▁مصلوب	-11.5905
▁ٹرانسفارمر	-11.5905
▁ٹیریٹری	-11.5905
▁تھیوڈور	-11.5905
▁موزارٹ	-11.5905
تلافی	-11.5905
▁سیڑھی	-11.5906
▁ٹرپل	-11.5906
▁گالیسی	-11.5909
▁ڈیزل	-11.5911
▁چیخ	-11.5912
▁ہائپو	-11.5912
▁ڈراپ	-11.5915
▁1851	-11.5916
▁1873	-11.592
تھمپٹن	-11.5921
▁ٹریپ	-11.5924
▁سولڈر	-11.5924
▁شافٹ	-11.5926
▁پرستار	-11.593
▁بوم	-11.5933
▁اپالاچین	-11.5936
▁سلپ	-11.5941
▁آگئی	-11.5942
▁50،000	-11.5943
▁وینیل	-11.5944
لیکٹ	-11.5954
چانگ	-11.5961
▁ٹوم	-11.5962
مقدم	-11.5962
تشر	-11.5963
▁یوگا	-11.5964
▁لوتھرن	-11.597
▁پھیلت	-11.599
▁گارڈین	-11.5999
SE	-11.601
پیلا	-11.6014
نیکو	-11.6023
▁گریگ	-11.6026
▁ڈونڈ	-11.603
سلام	-11.6033
▁پش	-11.6036
▁صوفیان	-11.6041
▁بلوم	-11.6042
رنیل	-11.606
▁لائ	-11.6071
▁قربان	-11.6087
ساکی	-11.6088
انڈا	-11.6089
▁Am	-11.6094
▁پکان	-11.61
▁فائٹ	-11.6107
▁سنجید	-11.6117
انڈور	-11.6118
OS	-11.6127
▁لاب	-11.6129
lan	-11.613
AT	-11.6137
▁لیکچر	-11.6138
ō	-11.6161
ɔ	-11.6161
▁Princ	-11.6161
▁اپوسٹول	-11.6161
▁باویریا	-11.6161
▁جغرافیہ	-11.6161
▁جھگڑ	-11.6161
▁حاکم	-11.6161
▁سلنڈر	-11.6161
▁مترادف	-11.6161
▁ورچوئل	-11.6161
▁پروپیگنڈ	-11.6161
▁کاربوہائیڈریٹ	-11.6161
▁نمائندگان	-11.6161
▁نقد	-11.6161
▁چیلسی	-11.6161
▁بھیڑیا	-11.6161
▁ہمدرد	-11.6161
▁نازک	-11.6161
▁ضمیمہ	-11.6161
▁جرنیل	-11.6161
▁تفریق	-11.6162
▁پومپی	-11.6162
افوٹی	-11.6162
▁0.2	-11.6163
▁فاسٹ	-11.6163
روچ	-11.6164
▁موٹاپ	-11.6164
▁نثر	-11.6167
▁1894	-11.6169
▁بلانک	-11.617
▁Ga	-11.6171
مپائر	-11.6172
▁1866	-11.6173
▁1892	-11.6176
IX	-11.6178
▁گھڑیاں	-11.6179
▁فائن	-11.6184
▁چکن	-11.6185
▁کھینچنے	-11.6188
▁معاوض	-11.6188
gen	-11.6189
▁نکلنے	-11.6195
▁جڑو	-11.6197
▁یورین	-11.621
▁ویگن	-11.6211
▁منائی	-11.6214
▁سلاٹ	-11.6219
▁تردید	-11.6219
ڈینش	-11.6221
▁اسٹینڈ	-11.6232
▁ناسا	-11.6234
اکثر	-11.6252
▁ڈب	-11.6285
ish	-11.6291
فرین	-11.6295
▁گریس	-11.6315
▁بیڑ	-11.6333
▁3000	-11.6363
▁براڈکاسٹر	-11.6367
BA	-11.6378
ٹرینڈ	-11.6381
▁Da	-11.6383
▁پہل	-11.6402
▁ہیرس	-11.6417
تما	-11.6424
ستند	-11.6424
&	-11.6424
bird	-11.6424
í	-11.6424
ɑ	-11.6424
▁ریگولیشن	-11.6424
▁میسوپوٹیمیا	-11.6424
▁ٹربیون	-11.6424
▁ڈائیوسیس	-11.6424
ά	-11.6424
▁بدوش	-11.6424
▁جھڑپ	-11.6424
▁شفاف	-11.6424
▁تیونس	-11.6424
▁صحافت	-11.6424
▁ایڈولف	-11.6424
ocking	-11.6424
▁بکھر	-11.6424
▁اراگون	-11.6424
▁انسولین	-11.6424
▁پیٹرولیم	-11.6425
▁غدود	-11.6425
▁فلمایا	-11.6425
▁پٹرولیم	-11.6425
▁اسمگل	-11.6425
▁نیورونز	-11.6427
▁سلائیڈ	-11.6427
▁پیپسی	-11.6428
▁نارمنڈی	-11.6429
▁لتھوانیائی	-11.6431
▁مشروبات	-11.6431
▁اولیگ	-11.6432
چھٹا	-11.644
▁مونٹگ	-11.6443
▁انڈیانا	-11.6444
▁کاریگر	-11.6449
▁سٹرنگ	-11.6449
▁پھیلایا	-11.645
▁ٹرمپ	-11.6452
▁کینال	-11.6463
▁سلیم	-11.6464
1.6	-11.6473
▁ویمن	-11.648
▁Ta	-11.6483
▁گیلو	-11.6496
MA	-11.6502
▁نشی	-11.6521
ونڈو	-11.6527
3.6	-11.6539
▁پروٹون	-11.6546
لیٹن	-11.6547
▁ڈورک	-11.6556
مکاسٹ	-11.6576
یلسن	-11.6586
125	-11.659
▁اٹھارہو	-11.6661
IC	-11.6668
▁جینیف	-11.6668
روکی	-11.6683
ُ	-11.6694
▁انحراف	-11.6694
▁چیکوسلوواکیہ	-11.6694
▁گھلنشیل	-11.6694
▁خالق	-11.6694
▁زیادتی	-11.6694
▁بھیڑیوں	-11.6694
▁چچا	-11.6694
▁کنکریٹ	-11.6694
▁سیگمنٹ	-11.6694
میونخ	-11.6694
▁ریچھ	-11.6695
▁کیوبیک	-11.6695
لوقا	-11.6695
▁پویلین	-11.6695
▁سٹرلنگ	-11.6695
▁Kill	-11.6696
▁پختگی	-11.6698
▁ناراضگی	-11.6699
نٹینڈو	-11.6699
▁1926	-11.6703
▁1824	-11.6707
▁گلوکو	-11.6709
▁1788	-11.6709
▁وولف	-11.6711
▁قاتل	-11.6713
▁300،000	-11.6713
▁نیگرو	-11.6714
▁لگانا	-11.6717
الگو	-11.6719
▁ڈوبنے	-11.6721
▁اپارٹمنٹس	-11.6722
▁چیئر	-11.6723
▁پیلیو	-11.6729
▁روتھ	-11.6732
ide	-11.6748
▁پاش	-11.675
▁ریپڈ	-11.6761
▁شاٹ	-11.6762
مشکلات	-11.6781
کلف	-11.6797
کریٹک	-11.6801
ازار	-11.6806
▁110	-11.6809
▁کھان	-11.681
▁Con	-11.6815
ڈوکس	-11.6817
▁چالو	-11.6832
پروشین	-11.6843
یورپی	-11.6846
یونانی	-11.6847
قومی	-11.685
AA	-11.6861
▁اسپائ	-11.6864
▁ارون	-11.6864
ies	-11.6864
▁ویلیو	-11.6893
ven	-11.6896
mes	-11.6922
وئٹ	-11.6927
1879	-11.693
van	-11.6945
▁(194	-11.696
پایا۔	-11.6967
▁رفت	-11.6969
ω	-11.6972
▁تخریب	-11.6972
▁فینوٹائپ	-11.6972
▁قازقستان	-11.6972
▁موگادیش	-11.6972
▁وائسرائ	-11.6972
▁آمریت	-11.6972
▁افسوس	-11.6972
▁بینیڈکٹ	-11.6972
▁موومنٹ	-11.6972
▁تھراواڈ	-11.6972
▁موصل	-11.6972
▁اوورلیپ	-11.6972
▁سرٹیفکیٹ	-11.6972
▁میگوئل	-11.6972
▁لزبن	-11.6973
▁دھوپ	-11.6973
▁گودام	-11.6973
tro	-11.6974
▁لکھنا	-11.6976
▁خوشبو	-11.6977
▁جلوس	-11.6977
▁ہیملٹن	-11.6979
▁مانیٹر	-11.6979
▁مینوئل	-11.6979
▁روبن	-11.698
▁نورڈ	-11.6981
▁اموی	-11.6985
▁Br	-11.6989
▁فلوٹ	-11.699
▁گائے	-11.6994
▁فرشتہ	-11.6995
ius	-11.6996
▁1.0	-11.7
▁نینو	-11.7002
▁3.1	-11.7008
▁کلرک	-11.701
▁فیوڈ	-11.701
▁فائیو	-11.7011
▁عمو	-11.7012
▁ڈش	-11.7014
▁['	-11.7016
▁کنڈیشنر	-11.7034
▁جمناسٹ	-11.7037
fer	-11.704
▁فارسٹ	-11.7046
▁ڈوئ	-11.7054
▁نیکول	-11.7058
▁گلا	-11.7058
▁لوب	-11.706
چسٹر	-11.7064
1884	-11.7067
▁حب	-11.707
af	-11.7076
▁Mo	-11.7083
OR	-11.7088
SC	-11.7095
کھائے	-11.7096
1829	-11.7101
▁لکھ	-11.7117
▁Te	-11.7117
▁سمو	-11.7128
1814	-11.7138
cor	-11.7148
▁گیلگ	-11.7149
1790	-11.7152
4.5	-11.7154
زیادہ	-11.7159
▁طل	-11.7162
بہت	-11.7163
کوسٹا	-11.718
ناوا	-11.7183
ارینا	-11.72
▁خیم	-11.7211
▁تھورنگی	-11.7227
▁بوسنیا	-11.7232
▁1080	-11.7233
▁معدنی	-11.7245
بست	-11.7248
▁اسکواڈ	-11.7257
έ	-11.7258
▁سلووینیا	-11.7258
▁طاعون	-11.7258
▁پریزنٹیشن	-11.7258
▁چاہئیں	-11.7258
▁کاربونیٹ	-11.7258
μ	-11.7258
حشرات	-11.7258
▁برمنگھم	-11.7258
θ	-11.7258
▁مقبر	-11.7258
▁پروفائل	-11.7258
▁ذہانت	-11.7258
▁ضرب	-11.7258
▁چراغ	-11.7258
▁گزارن	-11.7258
▁پینتھر	-11.7259
▁الجبر	-11.7259
▁اینٹیگون	-11.726
▁صدور	-11.726
▁آئیڈیلز	-11.7261
▁چالک	-11.7263
▁لیونارڈ	-11.7265
▁1644	-11.7267
بنائے	-11.7268
▁لنگر	-11.7271
▁1812	-11.7271
ong	-11.7272
▁نورڈک	-11.7272
▁1868	-11.7274
▁فیکٹ	-11.7276
گارٹن	-11.7278
▁سلم	-11.728
▁ٹارک	-11.7283
▁چلانا	-11.7295
▁شیلف	-11.7302
معین	-11.7303
▁ٹورنٹ	-11.7313
ance	-11.7321
▁سرکس	-11.7325
▁بڑھات	-11.7326
▁سومر	-11.733
بیانات	-11.734
▁ڈینیل	-11.7358
▁ٹوپ	-11.7374
بینڈ	-11.738
مالیہ	-11.738
▁رج	-11.7383
گنیٹ	-11.7385
▁پہنچات	-11.7386
1888	-11.7393
1.7	-11.7393
شوٹنگ	-11.7394
▁وارنٹ	-11.7433
▁109	-11.7469
فیلیا	-11.747
لیموس	-11.7474
تصادم	-11.7476
مشق	-11.7479
پرتگالی	-11.748
(	-11.7481
▁ریمس	-11.7486
▁شیڈو	-11.7527
▁ڈھانپ	-11.7552
▁Athanasius	-11.7552
▁اعدادوشمار	-11.7552
▁بیوروکریسی	-11.7552
▁حفظ	-11.7552
▁پروفیشنل	-11.7552
▁پھیری	-11.7552
▁بھتیج	-11.7552
▁قطار	-11.7552
▁لیکسنگٹن	-11.7552
▁سیکورٹی	-11.7552
▁مداح	-11.7552
▁گپتا	-11.7552
▁حویلی	-11.7552
▁یوکاریوٹ	-11.7552
▁الائنس	-11.7552
▁اناٹومی	-11.7552
▁تدریس	-11.7552
▁عظم	-11.7552
▁لاحق	-11.7552
ος	-11.7552
▁مضمر	-11.7552
▁حرب	-11.7553
،600	-11.7553
▁چادر	-11.7553
▁ارنسٹ	-11.7553
▁وحی	-11.7554
▁شریع	-11.7559
▁1869	-11.7566
▁1845	-11.7566
▁امتحانات	-11.7567
▁بلیئر	-11.7573
▁لیبیائی	-11.7579
یگون	-11.7582
▁Go	-11.7592
▁افیو	-11.7599
▁نانو	-11.7603
▁ڈریس	-11.7612
چمکدار	-11.7631
ity	-11.7637
▁برش	-11.7642
3.7	-11.7649
▁انگریز	-11.7653
▁چیری	-11.7661
▁لڑت	-11.7689
▁XII	-11.7713
▁سکھان	-11.7719
2.1	-11.7742
ٹوسک	-11.7752
ome	-11.7784
روڈو	-11.7794
▁نعر	-11.7807
▁رائٹر	-11.7812
عظیم	-11.7814
کچھ	-11.7814
خبریں	-11.7828
،000،000	-11.7843
▁آبپاشی	-11.7855
▁اونٹاریو	-11.7855
▁برینڈنبرگ	-11.7855
▁تحائف	-11.7855
▁تقدیر	-11.7855
▁سنسرشپ	-11.7855
▁نیوکلیئس	-11.7855
▁دہندہ	-11.7855
▁دہرایا	-11.7855
▁گڑیا	-11.7855
▁ہاؤنڈ	-11.7855
▁فزیکل	-11.7855
▁کبوتر	-11.7855
▁سترہ	-11.7855
▁پروٹوٹائپ	-11.7855
▁فلوروسین	-11.7856
▁فلیش	-11.7856
▁کنزرویٹری	-11.7856
▁جواہر	-11.7857
وگاوا	-11.7857
▁ایڈمنڈ	-11.7858
▁فلینڈر	-11.7858
▁رگڑ	-11.7859
▁ویکسینیشن	-11.7859
▁ناریل	-11.786
▁ڈارٹ	-11.786
▁کھوئے	-11.786
▁فیلکس	-11.7861
TF	-11.7862
▁حسن	-11.7862
▁کردیں	-11.7865
▁پورٹسماؤ	-11.7865
▁پولینیش	-11.7866
▁گشت	-11.7866
▁کیڑا	-11.7867
▁اسپارٹ	-11.7871
▁1899	-11.7871
▁انٹیگریٹ	-11.7872
▁غدار	-11.7877
▁ٹیکنو	-11.7888
▁آکٹ	-11.7889
▁فیڈرلسٹ	-11.789
▁60،000	-11.7892
رالڈ	-11.7901
▁ربن	-11.7901
▁ٹویٹ	-11.7925
▁Gu	-11.7931
▁Ra	-11.7936
اعلیٰ	-11.7978
▁بوئنگ	-11.7982
4.6	-11.7986
مرسیٹ	-11.8017
ڈیاز	-11.8022
ونسٹن	-11.803
یومر	-11.8032
مچھلیوں	-11.8056
▁Je	-11.8065
▁عص	-11.8083
▁اترن	-11.8106
▁نمی	-11.8108
4.8	-11.8127
RO	-11.8128
▁سنبھالت	-11.8141
پیڈو	-11.8143
shi	-11.8144
سنسکرت	-11.8157
▁مائک	-11.8158
▁کلوروف	-11.8163
q	-11.8166
▁سرٹیف	-11.8167
▁مائکروجنزم	-11.8168
▁پروجیکشن	-11.8168
▁پینگوئن	-11.8168
▁ڈپلوم	-11.8168
▁اغوا	-11.8168
▁اقتباس	-11.8168
а	-11.8168
▁میتھین	-11.8168
▁رئیل	-11.8168
▁پیلیولیتھک	-11.8168
▁سکاؤٹ	-11.8168
▁مٹھی	-11.8168
▁چیروکی	-11.8168
▁کھاد	-11.8169
▁بارٹلم	-11.8169
▁جگر	-11.8172
▁اسٹروک	-11.8173
▁پرائس	-11.8174
▁پہنایا	-11.8181
▁1843	-11.8183
rist	-11.8185
los	-11.8186
▁ٹریول	-11.8187
▁غلطیاں	-11.8193
▁2.2	-11.8194
▁لبر	-11.82
2.3	-11.8201
▁ٹیٹرا	-11.8201
▁ٹپ	-11.8201
▁سکریپ	-11.8222
▁پروسیس	-11.8234
▁کینڈی	-11.8246
3.4	-11.8247
OK	-11.8248
▁سجا	-11.8261
سپیئر	-11.8272
Cu	-11.8286
فارمز	-11.8294
ضابطہ	-11.8303
نیکا	-11.8344
نہوا	-11.835
▁اثاث	-11.8386
1795	-11.8393
▁ناتھ	-11.8405
▁کمپوز	-11.8417
زید	-11.8418
▁غلب	-11.8442
▁ٹسک	-11.8443
bit	-11.8444
▁انٹرسٹی	-11.8471
▁سفار	-11.8475
▁ریپبلک	-11.8475
▁آزمائش	-11.849
▁تماشائی	-11.849
▁رینڈرنگ	-11.849
▁زنجیر	-11.849
▁ٹھہرایا	-11.849
▁پراپرٹی	-11.849
▁پریکٹیشنر	-11.849
ı	-11.849
γ	-11.849
▁استعار	-11.849
▁باورچی	-11.849
δ	-11.849
▁آلودہ	-11.849
▁سیئول	-11.849
▁آمیز	-11.849
▁پکاسو	-11.849
ARA	-11.8491
▁ایجنڈ	-11.8491
▁افریک	-11.8491
▁الفونس	-11.8492
▁کینٹرب	-11.8492
▁ویمبل	-11.8493
▁چاہیے	-11.8494
▁مشتق	-11.8494
▁کنگڈم	-11.8494
▁یانکی	-11.8496
▁ٹمپ	-11.8496
▁دفع	-11.8498
▁دھون	-11.85
▁نائیج	-11.8501
▁1832	-11.8501
▁1862	-11.8503
▁اسابیل	-11.8503
▁1885	-11.8506
▁لبرٹی	-11.8508
▁1864	-11.8512
جاگ	-11.8514
▁یوجین	-11.8514
▁اٹار	-11.8526
▁ٹارٹ	-11.8531
▁سلا	-11.8544
ٹیریا	-11.8545
وپول	-11.8568
▁براک	-11.8588
▁برادران	-11.8603
▁دکھا	-11.8618
▁ڈاگ	-11.8654
▁اڑان	-11.8658
▁باؤر	-11.8668
1834	-11.8734
انزا	-11.875
AG	-11.875
▁فونوگراف	-11.8772
9.5	-11.8783
زائم	-11.8809
▁معاو	-11.8816
▁انتقام	-11.8823
▁راجپوت	-11.8823
▁فاسفورس	-11.8823
▁مشروط	-11.8823
▁ڈرائنگ	-11.8823
▁کھوپڑی	-11.8823
▁ہائیڈرائڈ	-11.8823
Cubs	-11.8823
▁ساردین	-11.8823
دھرما	-11.8824
▁کرسکیں	-11.8824
,600	-11.8824
▁الساس	-11.8824
سلوواکیہ	-11.8825
▁زیجیانگ	-11.8825
▁کمرشل	-11.8825
▁سومرسٹ	-11.8828
▁ہارل	-11.8828
▁مائر	-11.8828
▁اڑایا	-11.8832
▁1831	-11.8832
▁کورپس	-11.8834
▁اسٹریپ	-11.8834
▁سزاؤں	-11.8834
چینج	-11.8835
▁1897	-11.8836
▁بلٹز	-11.8836
▁1791	-11.8844
▁چھتری	-11.8844
میگنیٹس	-11.8846
▁پیرینی	-11.8851
▁لیمل	-11.8859
anti	-11.8861
ڈیلفی	-11.8861
▁سامرا	-11.8872
وسکوپ	-11.8881
سرچ	-11.8882
ہسپانوی	-11.8886
برطانوی	-11.8886
108	-11.8892
▁پینسل	-11.8898
▁اسٹوک	-11.8907
▁Com	-11.8914
،200	-11.8929
5.5	-11.8931
▁اسپیر	-11.8979
▁دھماک	-11.8986
1822	-11.9005
1807	-11.902
1758	-11.9029
▁فولی	-11.9121
▁لنڈ	-11.915
▁محب	-11.9158
▁MPEG	-11.9168
▁ازبکستان	-11.9168
▁اسکاؤٹ	-11.9168
▁انڈپینڈنٹ	-11.9168
▁تلچھٹ	-11.9168
▁جاگیردار	-11.9168
▁سلواڈور	-11.9168
▁فاسفیٹ	-11.9168
▁لومبارڈ	-11.9168
▁گھوڑسواری	-11.9168
براسیلیا	-11.9168
▁ڈایناسور	-11.9168
▁عسکری	-11.9168
▁مڈویسٹ	-11.9168
▁فرینکفرٹ	-11.9168
رابنسن	-11.9168
▁دلدل	-11.9168
▁چامورو	-11.9168
▁پیرامیٹر	-11.9169
▁عیب	-11.9169
▁ٹیکٹونک	-11.9169
▁جواریز	-11.9169
▁پولیچیٹ	-11.9169
▁فینٹاس	-11.9169
▁عزت	-11.917
▁0.7	-11.917
▁طنز	-11.917
▁ژونگ	-11.9171
▁اسٹیڈ	-11.9171
▁لیبنی	-11.9172
▁آرمز	-11.9172
ریموٹ	-11.9172
▁چائے	-11.9173
▁پریشر	-11.9175
▁مندوب	-11.9179
▁1844	-11.9179
▁راہداری	-11.9181
▁پونک	-11.9182
▁1887	-11.9184
▁گونڈ	-11.9184
▁پڑت	-11.9185
BC	-11.9192
ٹارچ	-11.9217
▁بوائ	-11.922
land	-11.9226
کلینک	-11.9229
اختیار	-11.9271
سیاہ	-11.9291
7.9	-11.93
7.4	-11.9308
لنڈن	-11.9324
▁بولون	-11.9332
ریگلی	-11.9359
3.8	-11.9389
▁Ph	-11.941
680	-11.9416
▁Ja	-11.9426
▁حراست	-11.9428
esti	-11.9454
▁بدع	-11.9497
▁محم	-11.952
▁incandescent	-11.9525
▁الیکٹرولائٹ	-11.9525
▁رعایت	-11.9525
ί	-11.9525
ñ	-11.9525
▁ٹرانزیکشن	-11.9525
▁رینالڈ	-11.9525
شکریہ	-11.9526
▁مائکرونیشی	-11.9526
▁العم	-11.9526
▁کیرولنگین	-11.9526
▁اکادی	-11.9526
▁دھواں	-11.9526
▁فریزر	-11.9526
▁بھول	-11.9527
▁مینڈلس	-11.9529
▁یتیم	-11.9531
▁فرائیڈ	-11.9531
▁پکسل	-11.9531
اجاگر	-11.9531
▁Gra	-11.9538
▁چنگڈو	-11.9539
▁پولیمر	-11.9541
▁1808	-11.9541
ً	-11.9889
ة	-11.9896
ì	-11.9896
ي	-12.028
η	-12.028
ό	-12.028
е	-12.068
Ü	-12.1097
ś	-12.1097
σ	-12.1986
к	-12.1986
۱	-12.1986
о	-12.1986
ú	-12.2463
ê	-12.2463
ṇ	-12.2463
;	-12.2963
н	-12.2963
्	-12.3489
и	-12.3489
ç	-12.4044
υ	-12.4044
म	-12.4044
ě	-12.4044
с	-12.4044
ա	-12.4633
′	-12.4633
۵	-12.4633
َ	-12.5258
Π	-12.5258
р	-12.5258
$	-12.5626
~	-12.5924
ē	-12.5924
漢	-12.5924
â	-12.5924
в	-12.6639
۹	-12.6639
→	-12.6639
字	-12.7408
š	-12.7408
ǎ	-12.7408
ύ	-12.7408
т	-12.7408
[	-12.8141
ή	-12.8241
ّ	-12.8241
ध	-12.8241
ἀ	-12.8241
星	-12.8241
י	-12.915
я	-12.915
ו	-12.915
§	-12.915
ß	-12.915
ô	-12.915
ḥ	-12.915
נ	-12.915
ξ	-12.915
л	-12.915
у	-13.015
É	-13.015
ø	-13.015
β	-13.015
ώ	-13.015
ר	-13.015
王	-13.015
Δ	-13.015
ْ	-13.1261
國	-13.1261
̃	-13.1261
ò	-13.1261
ь	-13.1261
大	-13.1261
£	-13.1499
м	-13.2511
ã	-13.2511
ć	-13.2511
χ	-13.2511
❤	-13.2511
喜	-13.2511
ş	-13.2511
書	-13.2511
·	-13.2511
ы	-13.394
ְ	-13.394
φ	-13.394
й	-13.394
ה	-13.394
ź	-13.394
ת	-13.394
ン	-13.394
支	-13.394
ð	-13.394
西	-13.394
子	-13.394
元	-13.5607
府	-13.5607
Á	-13.5607
õ	-13.5607
ス	-13.5607
リ	-13.5607
}	-13.5607
±	-13.5607
ł	-13.5607
र	-13.5607
ु	-13.5607
书	-13.5607
쟁	-13.5607
전	-13.5607
ħ	-13.5607
ž	-13.5607
أ	-13.5607
東	-13.5607
å	-13.5607
ק	-13.5607
국	-13.5607
衛	-13.5607
试	-13.5607
方	-13.7606
建	-13.7606
民	-13.7606
军	-13.7607
ִ	-13.7607
陳	-13.7607
۴	-13.7607
ï	-13.7607
ŋ	-13.7607
ʻ	-13.7607
क	-13.7607
ख	-13.7607
白	-13.7607
ד	-13.7607
ш	-13.7607
后	-14.0106
帥	-14.0107
剑	-14.0107
唐	-14.0107
מ	-14.0107
@	-14.0107
¥	-14.0107
Õ	-14.0107
î	-14.0107
ù	-14.0107
û	-14.0107
ğ	-14.0107
Η	-14.0107
א	-14.0107
ٔ	-14.0107
۶	-14.0107
Ṣ	-14.0107
丹	-14.0107
争	-14.0107
京	-14.0107
代	-14.0107
戦	-14.0107
田	-14.0107
蕃	-14.0107
都	-14.0107
ك	-14.0107
۲	-14.0107
法	-14.0107
đ	-14.0107
ʼ	-14.0107
한	-14.0107
г	-14.0107
ー	-14.0107
Β	-14.344
Λ	-14.344
吉	-14.344
ý	-14.344
þ	-14.344
̀	-14.344
Ν	-14.344
В	-14.344
Р	-14.344
ж	-14.344
ի	-14.344
ս	-14.344
ּ	-14.344
ى	-14.344
ा	-14.344
া	-14.344
ῆ	-14.344
り	-14.344
タ	-14.344
ト	-14.344
五	-14.344
入	-14.344
区	-14.344
南	-14.344
士	-14.344
徒	-14.344
戰	-14.344
朝	-14.344
爭	-14.344
督	-14.344
藏	-14.344
話	-14.344
话	-14.344
趙	-14.344
過	-14.344
韓	-14.344
방	-14.344
장	-14.344
プ	-14.344
д	-14.344
조	-14.344
해	-14.344
发	-14.344
开	-14.344
驗	-14.344
验	-14.344
ร	-14.844
复	-14.844
恢	-14.844
灾	-14.844
重	-14.844
ָ	-14.844
ׂ	-14.844
ש	-14.844
त	-14.844
Ø	-14.844
ą	-14.844
Ē	-14.844
ė	-14.844
ę	-14.844
œ	-14.844
ơ	-14.844
Φ	-14.844
Ψ	-14.844
ζ	-14.844
К	-14.844
ъ	-14.844
Լ	-14.844
Պ	-14.844
բ	-14.844
կ	-14.844
ր	-14.844
ֵ	-14.844
ח	-14.844
ל	-14.844
ـ	-14.844
ٍ	-14.844
ۂ	-14.844
۷	-14.844
۸	-14.844
ल	-14.844
ि	-14.844
্	-14.844
น	-14.844
ส	-14.844
า	-14.844
ố	-14.844
ụ	-14.844
ὸ	-14.844
√	-14.844
ぶ	-14.844
ら	-14.844
イ	-14.844
シ	-14.844
三	-14.844
东	-14.844
中	-14.844
來	-14.844
候	-14.844
光	-14.844
切	-14.844
利	-14.844
包	-14.844
十	-14.844
双	-14.844
口	-14.844
吐	-14.844
基	-14.844
寧	-14.844
对	-14.844
師	-14.844
平	-14.844
張	-14.844
後	-14.844
持	-14.844
按	-14.844
政	-14.844
新	-14.844
族	-14.844
案	-14.844
楊	-14.844
江	-14.844
浦	-14.844
番	-14.844
知	-14.844
舍	-14.844
讀	-14.844
越	-14.844
針	-14.844
隶	-14.844
雙	-14.844
音	-14.844
顯	-14.844
高	-14.844
교	-14.844
도	-14.844
親	-14.844
Ô	-14.844
Γ	-14.844
з	-14.844
۰	-14.844
さ	-14.844
有	-14.844
武	-14.844
海	-14.844
ַ	-14.844
レ	-14.844
ロ	-14.844
夷	-14.844
女	-14.844
将	-14.844
征	-14.844
校	-14.844
渣	-14.844
腐	-14.844
豆	-14.844
业	-14.844
产	-14.844
菩	-15.8361
红	-15.8362
紅	-15.8363
烏	-15.8364
斯	-15.8365
圖	-15.8366
П	-15.8367
̊	-15.8368
Š	-15.8369
Ş	-15.837
기	-15.8371
震	-15.8372
福	-15.8373
渤	-15.8374
泥	-15.8375
汶	-15.8376
术	-15.8377
技	-15.8378
成	-15.8379
川	-15.838
地	-15.8381
土	-15.8382
ミ	-15.8383
フ	-15.8384
コ	-15.8385
キ	-15.8386
ァ	-15.8387
ष	-15.8388
ठ	-15.8389
إ	-15.839
ψ	-15.8391
Æ	-15.8392
思	-15.8393
力	-15.8394
俄	-15.8395
צ	-15.8396
հ	-15.8397
̧	-15.8398
́	-15.8399
ļ	-15.84
Î	-15.8401
卫	-15.8402
⁄	-15.8403
द	-15.8404
ն	-15.8405
յ	-15.8406
Σ	-15.8407
Α	-15.8408
ń	-15.8409
₹	-15.841
Ś	-15.8411
Ā	-15.8412
{	-15.8413
ṭ	-15.8414
ë	-15.8415
Ö	-15.8416
铺	-15.8417
紫	-15.8418
水	-15.8419
库	-15.842
坪	-15.8421
•	-15.8422
Κ	-15.8423
Ż	-15.8424
›	-15.8425
İ	-15.8426
航	-15.8427
统	-15.8428
系	-15.8429
斗	-15.843
导	-15.8431
北	-15.8432
ῖ	-15.8433
Χ	-15.8434
<	-15.8435
۳	-15.8436
^	-15.8437
€	-15.8438
_	-15.8439
ง	-15.8439
เ	-15.8439
โ	-15.8439
常	-15.844
用	-15.844
軍	-15.844
ז	-15.844
ク	-15.844
チ	-15.844
日	-15.844
ग	-15.844
廷	-15.844
总	-15.844
緣	-15.844
義	-15.844
¡	-15.844
¢	-15.844
Ó	-15.844
ġ	-15.844
Ł	-15.844
ő	-15.844
Ε	-15.844
Є	-15.844
Х	-15.844
б	-15.844
п	-15.844
Հ	-15.844
տ	-15.844
ց	-15.844
ם	-15.844
ס	-15.844
פ	-15.844
ः	-15.844
न	-15.844
प	-15.844
জ	-15.844
প	-15.844
ম	-15.844
য	-15.844
র	-15.844
ল	-15.844
স	-15.844
ಚ	-15.844
ಮ	-15.844
ಶ	-15.844
ಿ	-15.844
ย	-15.844
ศ	-15.844
อ	-15.844
ิ	-15.844
ี	-15.844
ṛ	-15.844
ỉ	-15.844
ồ	-15.844
ờ	-15.844
ὐ	-15.844
ὶ	-15.844
の	-15.844
は	-15.844
セ	-15.844
ゼ	-15.844
ダ	-15.844
パ	-15.844
ピ	-15.844
ャ	-15.844
ュ	-15.844
ラ	-15.844
ル	-15.844
ワ	-15.844
丁	-15.844
上	-15.844
主	-15.844
义	-15.844
事	-15.844
仔	-15.844
仕	-15.844
他	-15.844
会	-15.844
伝	-15.844
伯	-15.844
何	-15.844
侍	-15.844
像	-15.844
凹	-15.844
刘	-15.844
剧	-15.844
印	-15.844
叠	-15.844
古	-15.844
和	-15.844
块	-15.844
坤	-15.844
城	-15.844
堂	-15.844
塊	-15.844
変	-15.844
天	-15.844
奴	-15.844
妹	-15.844
安	-15.844
審	-15.844
巡	-15.844
帝	-15.844
忒	-15.844
拼	-15.844
提	-15.844
撫	-15.844
教	-15.844
文	-15.844
時	-15.844
替	-15.844
本	-15.844
朱	-15.844
杭	-15.844
様	-15.844
標	-15.844
比	-15.844
泉	-15.844
济	-15.844
準	-15.844
潮	-15.844
片	-15.844
特	-15.844
理	-15.844
甫	-15.844
異	-15.844
皇	-15.844
社	-15.844
秀	-15.844
緑	-15.844
緩	-15.844
绍	-15.844
经	-15.844
耶	-15.844
臣	-15.844
興	-15.844
船	-15.844
良	-15.844
苗	-15.844
萨	-15.844
蒲	-15.844
薩	-15.844
虫	-15.844
蝶	-15.844
表	-15.844
覆	-15.844
見	-15.844
言	-15.844
説	-15.844
議	-15.844
豊	-15.844
起	-15.844
逸	-15.844
道	-15.844
金	-15.844
陵	-15.844
陽	-15.844
館	-15.844
體	-15.844
그	-15.844
독	-15.844
로	-15.844
리	-15.844
스	-15.844
회	-15.844
前	-15.844
汉	-15.844
ċ	-15.844
ɨ	-15.844
್	-15.844
ἐ	-15.844
下	-15.844
兵	-15.844
松	-15.844
苏	-15.844
草	-15.844
대	-15.844
수	-15.844
예	-15.844
#	-15.844
А	-15.844
х	-15.844
ч	-15.844
